{
  "ĠIDS": 40297,
  "Ġnoticeable": 43426,
  "ĠGS": 36370,
  "ĠÎŁÎ¹ÎºÎ¿Î½Î¿Î¼Î¹ÎºÏİÎ½": 130545,
  "ĠÐ¼ÐµÐ´": 102771,
  "Calibri": 74942,
  "Î¼Î±ÏĦÎ¿ÏĤ": 106601,
  "uilt": 11476,
  "ĠÐ¿Ð¾Ð»ÑĥÑĩÐ¸ÑĤÑĮ": 117640,
  "ĠQMessageBox": 42318,
  "ĠIkea": 75539,
  "Passed": 65823,
  "BYTE": 35008,
  "={!": 65526,
  "ĠÎµÎ¼ÏĢÎ¿ÏģÎ¹ÎºÏİÎ½": 138713,
  "âĢ¦it": 100067,
  "arser": 10642,
  "_OD": 61526,
  "Ð²": 5591,
  "ĠEmails": 72966,
  "www": 2185,
  "ĉcuda": 68191,
  "DOWN": 23370,
  "ĠCr": 4656,
  "ÑĩÐ°Ð¹": 105526,
  "Ð»ÐµÐºÑģ": 103110,
  "Ġcultural": 13042,
  ".setColor": 27902,
  "Miller": 89437,
  "ØªØ²": 119769,
  "Ġexaggerated": 62258,
  "ĠÎ´Î¿Î¼Î®": 131520,
  "ĠCobra": 85575,
  "è¨ĢãģĨ": 112844,
  ".exe": 19963,
  "apo": 66652,
  "Ġrecognise": 44917,
  "favor": 75060,
  "ÐµÐºÐ¾": 114815,
  "mapping": 41892,
  "ĠNetflix": 23469,
  ".Encode": 51317,
  "_queryset": 67738,
  "tems": 91937,
  "ĠVisitor": 56982,
  "_filled": 91692,
  "[]>(": 53385,
  ")+Ċ": 86040,
  "walking": 81749,
  "ĠaddButton": 89296,
  "-manager": 45996,
  "bands": 43006,
  "ovÃŃ": 117137,
  "ĠÎĽÏĮÎ³Ïī": 142432,
  "à¸ģà¸³": 104955,
  "Ġ'{$": 45700,
  "ĉok": 60368,
  ".globalData": 77730,
  "ciler": 126482,
  "Ð»Ð¸Ð²Ð°": 103793,
  "ITICAL": 47917,
  "iyatÄ±": 118126,
  "å¹¶ä¸į": 125712,
  "Ctx": 24612,
  "ĠActivityCompat": 93544,
  "Ġblinking": 85122,
  "Meal": 81668,
  "Ġabandoning": 78339,
  "ĠActual": 34459,
  "(bottom": 57818,
  "ĠÎµÏĨÏĮÏĥÎ¿Î½": 129809,
  "Ø¹ÙĦÙī": 118866,
  "itivity": 18546,
  "Ġbri": 40568,
  "åŃ": 10890,
  "Ġ}ĊĊĊĊ": 17398,
  "ĠÐ¾ÑģÑĮ": 124930,
  "Æ°á»Ľc": 100494,
  "Î¼ÎµÎ¹Î½Î±Î½": 135865,
  "ččĊ": 6053,
  "ĠiOS": 16433,
  "Ġsweating": 81366,
  "_is": 7037,
  "ĠÎºÎ±Î¹Î½Î¿ÏĦÏĮ": 134059,
  "Ð½Ð¾ÑģÑĤ": 100846,
  "ĠRTE": 82955,
  "ĠBlake": 31994,
  "ìŀĲë£Į": 109581,
  "<Double": 46547,
  "Ġcandidates": 11426,
  "ĠÎµÎ½Î´ÎµÏĩÏĮÎ¼ÎµÎ½Î¿": 132373,
  "Mongo": 56098,
  "ÑĤÐ¾Ð²": 101531,
  "æİªæĸ½": 123755,
  "Ġupstairs": 50007,
  ".space": 36983,
  "ÙĨÙĬØ©": 106364,
  "_business": 67098,
  "FFFF": 6523,
  "ound": 801,
  "ĠÎļÎ±Î»Î¿": 142957,
  "Ġ+#": 95843,
  "ÏĮÎ¼Î±ÏĥÏĦÎµ": 132105,
  "ìľ¼ë©´": 91040,
  "ĉdraw": 40810,
  "Ġrefuse": 26122,
  "ĉĉĉĠĠ": 18492,
  "usty": 47425,
  "Î¹ÏĥÏĦÎ±": 128166,
  "cÃŃch": 103349,
  "ossier": 40329,
  "ĠÐ·Ð°Ð´Ð¾Ð²": 121747,
  "Ġrites": 99552,
  "maps": 18106,
  "Ġroyal": 30336,
  "Ġjego": 72029,
  "patient": 23557,
  "ĠSculpt": 83797,
  "ĠPIX": 62701,
  "hostname": 28906,
  "ĠÙģØ¥ÙĨ": 115843,
  "ĠArial": 53871,
  "Ġreloading": 86730,
  "_invoice": 40325,
  "ibration": 18856,
  "éº»": 108068,
  "\\Exception": 27659,
  "Ġasteroid": 55479,
  "ĠÎķÏģÎ½": 132248,
  "BERT": 62537,
  "Î»ÎµÎº": 115208,
  ".myapplication": 81089,
  ".Stretch": 56109,
  "])):Ċ": 58150,
  "ĠjsonObj": 80275,
  "/compiler": 83794,
  "ĠRadical": 88981,
  ".NaN": 79806,
  "ĠWarfare": 67694,
  "Ġèĳ": 112243,
  "TLS": 46539,
  "Ġministry": 25887,
  "_lr": 47186,
  "(enum": 65645,
  "ĠPROJECT": 40992,
  "Ġkapit": 114025,
  "ĠÐºÐ¾Ð»Ð¸": 103269,
  "Ġmultic": 92520,
  ".FirstOrDefault": 30720,
  "Ġjazy": 116376,
  ".apache": 5206,
  "ĠCharacteristics": 85084,
  "antee": 14164,
  "ÏģÎ¯Î¶ÎµÎ¹": 128415,
  "Ġrespecting": 69515,
  "(ord": 80725,
  "Ġproceed": 10570,
  "LES": 14344,
  "ĠAw": 18371,
  "ĠQuÃ¢n": 119989,
  "MethodBeat": 80612,
  "ĠÄĳ": 15199,
  "$pdf": 35310,
  "Ġesposa": 85990,
  "ĠÐ¢Ð¸": 117033,
  "ĠØ§ÙĦØ¨ØŃØ«": 123842,
  "arch": 1132,
  "ĠÐ¿ÑĢÐ¸Ð²": 108349,
  "Ġinstitution": 15244,
  "_STD": 48266,
  "ĠTraffic": 38081,
  "ĠSmarty": 51414,
  "ĠpaddingTop": 49634,
  "Neither": 63295,
  "ÑĪÐ¸ÑĢ": 110253,
  "ë°©ìĨ¡": 122676,
  ".Setter": 83237,
  "Ġdemolished": 76993,
  "::::::::::::::": 116914,
  "Ġcorrected": 37065,
  "ĠæīĢ": 108182,
  "arasÄ±": 106550,
  "ĠUtil": 10377,
  "ĠÙ¾Ø§Ø³": 108458,
  "ĠTree": 9119,
  "ĠMong": 44539,
  "ĠnovÃ½ch": 122917,
  "ÙħØª": 102555,
  "ÏĢÎ¿Î»Î·": 130726,
  "ĠØ¹ÙĨÙĩ": 119903,
  "ĠDepos": 78150,
  "ÎĽÎ¯Î³": 136654,
  "ĠyazÄ±lÄ±m": 121364,
  "Â«ÎĶÎµÎ½": 136155,
  "ĠÑĩÐµÑĢÐ²": 111835,
  "lamp": 95857,
  "sj": 23760,
  "Climate": 83146,
  "false": 3934,
  "Ġtex": 23984,
  "istogram": 29599,
  "Farm": 72094,
  "Ġdealings": 67029,
  "Ġjogging": 99738,
  "/response": 99904,
  ".Syntax": 81379,
  "Ø®ÙĦ": 107481,
  "Ġbinds": 58585,
  "LIGHT": 60686,
  ".Pull": 98457,
  "à¸´à¸Ļà¸Ĺà¸²à¸ĩ": 115263,
  "Ġpand": 12495,
  "ĠØ´Ø±ÙĥØ©": 106939,
  "Ġcyk": 118955,
  "ucose": 94697,
  "ĠIllustr": 39154,
  "ĠÏĢÏģÎ¿ÎºÏįÏĢÏĦÎµÎ¹": 129915,
  "ĠUrdu": 94435,
  "ĠÎ½Î¿Î¼Î¿Ïį": 137852,
  "è¯į": 106015,
  "/gallery": 69080,
  "ategorical": 47147,
  "æıĲä¾Ľ": 104908,
  "ë¬¼ìĿĦ": 123402,
  "Ġisinstance": 11656,
  "mon": 1677,
  "ĠÎ³ÎµÏīÏģÎ³Î¯Î±": 139452,
  "-force": 81149,
  "sync": 13293,
  "rypton": 54636,
  "ĠMellon": 88487,
  "(priority": 77769,
  "èº«": 96356,
  "ffield": 54339,
  "Ġvelocities": 75157,
  "Ġgala": 97580,
  "Ġblooms": 92889,
  "ÐµÑĤÐ°": 102511,
  "ĠQuant": 32541,
  "ĠÎ±Î½ÎµÎº": 138617,
  "Ġ*>": 23801,
  "Ġsumm": 35359,
  "balance": 22298,
  "Polit": 97447,
  "Ġanlat": 105527,
  "Ġcruis": 60197,
  "Ġchampion": 18824,
  "liÄį": 115267,
  "fÃ¼h": 69645,
  "ĠÃ¶nlem": 124252,
  "Ġtome": 85842,
  "cities": 54109,
  "ÏĮÏģ": 107835,
  "ĠØ´Ø§ÛĮØ¯": 126974,
  "Ġfreshly": 50999,
  "ĠÎ´Î¿ÏħÎ»ÎµÎ¹Î¬ÏĤ": 142427,
  "ĠRamsey": 65646,
  "ĠÐ¿ÑĢÐµÐ´ÑģÑĤÐ°Ð²Ð»ÑıÐµÑĤ": 123163,
  "_CHARS": 83419,
  "JECTED": 90007,
  "ĠÎ¤ÏĥÎ¯ÏĢÏģÎ±": 133230,
  "Ġnonexistent": 88034,
  "Ã¼t": 29758,
  "_ICON": 37625,
  "ĠÐ¿Ð¾Ñģ": 100595,
  "ĠÎµÎ¯Î´Î±": 132848,
  "TypeError": 81176,
  "èĤĸ": 120620,
  "(\"\\\"": 40015,
  "024": 19592,
  "Ġpassion": 11939,
  "Î¸ÎµÎ¼Î±": 141084,
  "\".": 3343,
  "BILL": 91504,
  "ĉcallback": 44450,
  "Ġtraveling": 21646,
  "Ġpsychosis": 98147,
  "Ġdownstream": 52452,
  ".čĊčĊ": 18304,
  "_im": 18377,
  "ĠPerth": 50544,
  "ãģ¨ãģĭ": 110162,
  "ÏĮÎ¼ÎµÎ½Î¿Ïħ": 135745,
  "Walker": 85992,
  "Ġstandings": 68663,
  ".er": 97973,
  "ĠÎµÎºÏĢÎ¿": 138529,
  "Ġreload": 19161,
  "\\core": 98683,
  "ĠØ³ÙĪØ±": 110978,
  ".rt": 71316,
  "marca": 85818,
  "$scope": 20015,
  "Ð´ÐµÐ»": 59030,
  "Ġpossible": 3284,
  "ãĢĤåľ¨": 107644,
  "_RETURN": 22672,
  "ĉassert": 7093,
  "ï¼¿ï¼¿": 100978,
  "(strict": 39027,
  "ĠSearches": 82269,
  "Î»Î¹Î¿ÏĤ": 132258,
  "ĠAppendix": 65814,
  "ĠPreparedStatement": 43158,
  "Ġda": 3067,
  "Ġurg": 61939,
  "ĠgetList": 60991,
  "(Model": 27540,
  "ĠnewRow": 84938,
  "Ġpowerless": 85452,
  "ibt": 20938,
  "Ġíģ´ëŀĺìĬ¤": 94282,
  "ĠbufferSize": 66258,
  "Ġinformant": 93121,
  "ĠÏĥÏĩÎ¿Î»Î¹ÎºÏĮ": 139388,
  "Î±ÏĥÎ±Î½": 132589,
  "========Ċ": 77450,
  "Ġä¿®": 127426,
  "_CHAIN": 71332,
  "ĠÐ¶Ð¸ÑĢ": 122167,
  "gew": 38385,
  "çĢ": 112086,
  "Ø§ÙĦÛĮ": 101613,
  "ĠEstimated": 83086,
  "cribed": 17890,
  "ĠmÃ¶chten": 87070,
  "ThÃªm": 96942,
  "ĠTableRow": 81317,
  "ÏĥÏħÎ½Î´ÎŃ": 142328,
  "Ġfundraising": 37419,
  "łí": 58260,
  "ĠSemi": 55738,
  "Ġprocesses": 11618,
  "Ġinterpreter": 40399,
  ".emit": 17232,
  "_prop": 22401,
  "even": 17206,
  "ĠÑģÐ°Ð¼ÑĭÐ¼": 124704,
  "ĉDWORD": 45270,
  "Ġprerequisites": 86358,
  "refixer": 90448,
  "Î¯Î½Î·ÏĥÎ·ÏĤ": 132827,
  "ĠNear": 31494,
  "Ġbricks": 50137,
  "(rp": 97070,
  "poons": 83188,
  "ĠRomantic": 76830,
  "('\\\\": 55193,
  "iji": 35973,
  "/pass": 68170,
  ".Team": 66942,
  "ĠSL": 17216,
  "_key": 3173,
  "tf": 9112,
  "Spider": 74008,
  "Ð°ÑĤÐºÑĥ": 106022,
  "Ġexp": 1367,
  "(egt": 73530,
  "Ġlocated": 7559,
  "Ø§ÛĮØ¬": 116544,
  "Ġinan": 108019,
  "_OPCODE": 74180,
  "Ġbloc": 41840,
  ".il": 81858,
  "á»Ĳ": 125197,
  "_google": 48255,
  "ä¸ĭæĿ¥": 113931,
  "Ġ///Ċ": 17494,
  "Ġtyranny": 78001,
  "Ġlever": 28605,
  "545": 20749,
  "\\Response": 16200,
  "\"?ĊĊ": 94770,
  "required": 6413,
  "ãĢĢãĢĢãĢĢĠãĢĢ": 108498,
  "Ġnick": 16370,
  "asters": 14533,
  "ÏĦÎ¹ÎºÏİÎ½": 110724,
  "ÎĵÎµÎ½Î¹ÎºÎ¬": 142839,
  "à¸ŀà¸§à¸ģ": 110543,
  "}\");Ċ": 20923,
  "à¹ģà¸«à¸¥": 120080,
  "ê³¡": 108047,
  "_PRICE": 53000,
  "Ġfu": 18922,
  "ĠfÃ¶": 41600,
  "ĠMART": 90665,
  "Ġtvar": 120644,
  "ĠmainScreen": 67506,
  "Ġëħ¸íķĺìļ°": 127983,
  "human": 26380,
  "ĠÐ¸Ð·Ð±": 116571,
  ".DB": 23353,
  "ĠÏĢÏģÎ¿ÎºÎµÎ¹Î¼ÎŃÎ½Î¿Ïħ": 128448,
  ".lp": 80432,
  "hi": 6151,
  "$str": 43857,
  "([&": 81753,
  "ÎłÏģÎŃÏĢÎµÎ¹": 134478,
  "Ġnom": 9859,
  "Ġunveiled": 39297,
  "prav": 102628,
  "OLUM": 13108,
  "Ġç¶²": 124330,
  "ï¼Įä¸İ": 126240,
  "listeners": 78050,
  "ĠÎļÎ¿ÏįÏģ": 141768,
  "ãĥ¯": 102756,
  "à¸¹à¸ģà¸Ħ": 119330,
  "ĠCurtis": 51816,
  "Ġhosp": 21036,
  "ĠÎĳÎ¸Î·Î½Î¬": 138938,
  "ĠÎĺÎµÎ¿Î´Ïī": 135389,
  "layer": 10546,
  "ĠRever": 83279,
  "Ġmov": 2016,
  "ĠÎ±ÏĢÎµÎ¹": 129504,
  "IKE": 73066,
  "ĠAgo": 97703,
  "edy": 9497,
  "Ġunge": 67896,
  "getSize": 60453,
  "Mathf": 88243,
  "constants": 16140,
  "ÙĪÙĨÙĬØ©": 124242,
  "ILLA": 99582,
  "')[": 13588,
  "stdbool": 63656,
  "Ġæī": 47850,
  "Almost": 39782,
  "uggle": 50428,
  "ĠBallet": 87736,
  "ĠìĿ": 17169,
  "ĠÙĬÙĪÙĨÙĬÙĪ": 119712,
  "Ġngon": 111495,
  "ĠBrian": 17520,
  "Ġdeployments": 72642,
  "lus": 83745,
  "Ġhalftime": 79559,
  "Adult": 53130,
  "à¤ıà¤®": 121124,
  "Ġfreezer": 50685,
  "Î¯Î½Î¹Î±": 134704,
  "çİī": 106157,
  "/her": 39007,
  "Î³ÏģÎ±Î¼": 129762,
  "ãģĹãģ¦ãĤĭ": 127662,
  "rnek": 111293,
  "OG": 12501,
  "getColor": 48760,
  "ĠÑįÑĤÐ¾Ð³Ð¾": 103117,
  "Ð°ÑĨÐ¸Ð¸": 54686,
  "ĠMagnum": 94961,
  ".Rendering": 54706,
  "ĠBes": 18569,
  "ÏĥÎ¿ÏĩÎ®": 142740,
  "ĠencodeURIComponent": 57837,
  "ĠÐ¿ÑĢÐ¾Ð¸Ñģ": 107210,
  "ĠÎ²Î»Î¬Î²Î·ÏĤ": 140121,
  "Ġmmap": 71966,
  "ĠFirebaseAuth": 53081,
  "à¸²à¸ĸ": 110182,
  "Ġfuera": 70775,
  "Ð°Ð±Ð»Ð¸ÑĨ": 72805,
  "Ġpursuant": 33549,
  "à¸±à¸Ħ": 123970,
  ".cpp": 7356,
  "ĠÎµÎºÎ¼ÎµÏĦÎ¬Î»Î»ÎµÏħÏĥÎ·": 136473,
  "Ġwym": 72341,
  "ÏĦÎ¹Î½": 116723,
  "è²¬": 113160,
  "Ġheirs": 91401,
  "/layouts": 90217,
  "ulmasÄ±": 118074,
  ".ndarray": 36649,
  "ëĮĢíĳľ": 124270,
  "æĬŀ": 119899,
  "ĠCobb": 69005,
  "327": 13817,
  "_session": 12596,
  "bnb": 45102,
  "Ġmanoe": 99781,
  "uento": 56388,
  "ĠOccasionally": 89426,
  "=zeros": 57644,
  "Ġadvisable": 69919,
  "-pin": 75543,
  "Ġsimilar": 4528,
  "Ã¨m": 111908,
  "ĠÑģÑĥÑĩÐ°Ñģ": 112554,
  "ĠÐ¦ÐµÐ½ÑĤÑĢÐ°Ð»ÑĮ": 125556,
  "Ġknitting": 72899,
  "Ġserotonin": 77130,
  "ĠPhill": 25533,
  "ĠDor": 25225,
  "ECH": 93133,
  "à¥Įà¤¤": 107701,
  "Ġprivilege": 26632,
  "åħ¥": 17701,
  "æĪ¿å±ĭ": 123271,
  "Ġweit": 86217,
  ".Visual": 34329,
  "Ġbedroom": 14150,
  "Ġcostumes": 45188,
  "ÎŁÎĶÎ¥": 138213,
  "GetInstance": 43861,
  "hydr": 26233,
  "âĤĥ": 121412,
  "ĠSiber": 68600,
  "rire": 96513,
  "zent": 38237,
  "Ð²ÑģÑı": 108191,
  "-service": 24358,
  "handleRequest": 92337,
  "_NUMBER": 19925,
  "$http": 92756,
  "ĠÄĳáº©y": 112010,
  "Ġwall": 7147,
  "STE": 59784,
  "ĠæĻ": 103480,
  "ĠDrone": 74581,
  "ï»¿#": 43372,
  "(F": 7988,
  "ĠÙģØ±Ùħ": 120224,
  "ĠÎ¿ÏģÎ¯": 141071,
  "ĠLAP": 72428,
  "ãĢĢãĤ¤": 127982,
  "amburg": 32548,
  "ĠÎ¡ÎµÏĦÎ¶": 143053,
  "erer": 91117,
  "lid": 62306,
  "_requires": 56049,
  "Raw": 20613,
  "ÎºÏĦÏİÎ½": 133213,
  "ĠGraham": 26181,
  "ĠÎĳÎ¼ÏĢ": 143741,
  "Ġà¤ķà¤¡": 119034,
  "(File": 20408,
  "ĠÐºÐ¾Ð½ÑĨÐ°": 127809,
  "ania": 9345,
  "Sw": 13521,
  "AS": 1950,
  "cline": 89034,
  "Ġlongitud": 49704,
  "_ulong": 73388,
  "SON": 2770,
  "Save": 8960,
  "ìłł": 123888,
  "Å¡Å¡ÃŃ": 106448,
  "Delimiter": 92198,
  "\\Field": 99982,
  "WAYS": 37641,
  "Î£ÏĩÎ®Î¼Î±": 135501,
  "ĠÐ²ÐµÑĢ": 64362,
  "ĠÎµÎ½ÏĦÏħÏĢ": 130486,
  "Ġpredecessors": 62540,
  "ĠAlice": 30505,
  "ĠsetUp": 19133,
  "(utils": 65266,
  ".getById": 73175,
  "ĠIndigenous": 47103,
  "Launching": 73432,
  "Ġpleased": 18949,
  "ahir": 52098,
  "Mapped": 84445,
  "ĠPhilippines": 26363,
  "Ġmanage": 10299,
  "addon": 52199,
  "translations": 59550,
  "=u": 39733,
  "ĉrb": 86689,
  "ĠrÃ©seau": 98947,
  "Ġdistributes": 96835,
  "CppCodeGen": 35338,
  "Ġposition": 2361,
  "ITED": 79604,
  ".setRotation": 87390,
  ";j": 13360,
  "ĠÎľÎ·": 118716,
  "ĠKurdish": 42740,
  "anÃ§a": 92098,
  "airs": 4825,
  "ĠÎ´Î¹Î±ÎºÏģÎ¯Î½ÎµÏĦÎ±Î¹": 142646,
  "Parameter": 5078,
  "ĠÏĥÏħÎ¼Î¼ÏĮÏģÏĨÏīÏĥÎ·": 140319,
  "Ð·Ð²": 120966,
  "eczy": 97595,
  "Î¼Î¬ÏĦÎ±Î¹": 132132,
  "Ġxx": 21578,
  ".Theme": 70958,
  "ĠVAT": 48692,
  "åıĳå±ķ": 106246,
  "Î³Î¹Î¬Î½Î½Î·": 135394,
  "ĉel": 60736,
  "_smooth": 72755,
  "agrid": 46427,
  "ÏĨÎ·Î¼Î±": 135238,
  "eel": 96551,
  "æ°ĳæĹı": 121593,
  "Ġamber": 68705,
  "(namespace": 53497,
  "indsay": 55077,
  "à¤ıà¤ķ": 111893,
  "Ġerm": 77234,
  "lÃ¼k": 104355,
  "ĠConnections": 67052,
  "ĠOutcome": 95709,
  "_female": 98927,
  "Ġchat": 6369,
  "_lex": 75647,
  ".Term": 81771,
  "ĠOslo": 58958,
  "Ġorbits": 86228,
  "yte": 79461,
  "(group": 18158,
  "-à¤ª": 116423,
  "åĳĨ": 127824,
  "Ġnossa": 77839,
  "Geometry": 21450,
  "ĠÎĺ": 103068,
  "Ġpunishing": 75986,
  "ÙĬÙĦØ©": 107325,
  "ĠSusan": 31033,
  "Ġcoworkers": 84055,
  "odium": 47876,
  "ĠÐĺ": 43896,
  "ĠÎ·Î¼Î¯": 139321,
  "inan": 74276,
  "Ġ])": 42673,
  "fil": 12723,
  "rray": 855,
  "quiring": 71194,
  ".qty": 82510,
  "ĠHarry": 14253,
  "ÏĥÎŃ": 130685,
  "Ġsavoir": 47929,
  "ehicles": 42965,
  "à¸´à¸Ļà¸Ĺà¸£": 115714,
  ".TestCheck": 99649,
  "Ġmosque": 51112,
  "ÑģÐ¸Ð¼": 103815,
  "Ġrichtig": 66781,
  "Ġdrafting": 59000,
  ".Admin": 40569,
  "Ġpups": 90821,
  "ĠÎłÎ¿Î¹Î½": 143405,
  "Ð¾Ð·Ð¼Ð¾Ð¶Ð½Ð¾": 116962,
  "ĠÏĩÎ±Î¼Î·Î»ÏĮ": 134242,
  "à¹į": 114826,
  "Ġpaddle": 40403,
  ".Transfer": 96902,
  "ĠÏĥÏħÎ½ÎµÎ¹Î´Î·ÏĦÎ¿": 134742,
  "Ġinequality": 32305,
  "ĠgÃ¶nder": 107866,
  "Ã£i": 109285,
  "Arrow": 27003,
  "HLT": 81158,
  "Ġà¤¬à¤¯": 126154,
  "ĠSlater": 98103,
  "Î¿Î½Î³Îº": 141219,
  "rant": 35534,
  "Ġà¸«à¸¡": 114761,
  "Ġspouse": 32080,
  "xED": 84323,
  "ĠØ¨Ø§Ø´ÙĨØ¯": 110822,
  "_RANK": 71106,
  "ĠÎ¬": 101865,
  "Î¼ÎµÏģÎ¿": 126225,
  "Ġfew": 2478,
  "ÛĮØ³": 104535,
  "zens": 19059,
  "gradient": 27492,
  "'])){": 81740,
  "Î½ÏīÎ½": 129045,
  "ĠÐ¸ÑģÐ¿": 53687,
  "ĠÎķÎĵ": 142665,
  "kategori": 68547,
  "ket": 26554,
  "Ð¾Ð»Ð¾Ð³Ð¸Ñı": 119909,
  "cid": 21200,
  "ĠÐºÐ°Ð¶Ð´": 89666,
  "Ġquality": 4367,
  "_Build": 97786,
  "ÎĳÏĨÎ¿Ïį": 140525,
  ">Name": 45768,
  "styl": 86688,
  "Ġgluten": 38455,
  "_FIN": 46380,
  "ĠHair": 26781,
  "Ġrepreh": 78937,
  "Ġportals": 76563,
  "<&": 53344,
  "Ġadvocacy": 35954,
  "ĠÎĪÎº": 134699,
  "kinson": 51547,
  "(\"..": 96132,
  "ÙĩÙĩ": 126674,
  "ABS": 58579,
  "_saida": 77520,
  ".rad": 46779,
  "pawn": 69696,
  "Ġà¤ħà¤ªà¤°": 123431,
  "Ġ{ĊĊ": 1504,
  "ĠTIMEOUT": 91946,
  "åı": 5877,
  "_guid": 44856,
  "ĠImperial": 31013,
  "ĠÏĪÎ·ÏĨÎ¹Î±ÎºÏĮ": 138557,
  "Î¼ÎŃÎ½Î¿ÏĤ": 119099,
  "ĠÄĳáº¹p": 105450,
  "à¸Ńà¹Ģà¸¡à¸£": 119274,
  "ÏĩÎ½ÎµÎ¹": 133868,
  "Î¯Î¼Î¿Ïħ": 131873,
  "insi": 32384,
  "ODY": 21727,
  "ĠÐľÑĸÐ¶": 124803,
  "Î¸Î¯Î±ÏĤ": 136438,
  "ĠÎµÎºÎ±": 128068,
  "ĠÎ¼Î¹ÏĥÎ¸Î¿": 138055,
  "Ġ\"\")čĊ": 61728,
  "åĪ°çļĦ": 123703,
  "ĠìķĮìķĦ": 116247,
  "ĠCri": 92240,
  "onte": 53377,
  "ÏĥÏĦÏİ": 140458,
  "{\"": 5018,
  "istency": 48194,
  "ĠIntl": 85678,
  "ĠyaptÄ±": 111223,
  "ä¿Ŀ": 33563,
  "ìł": 14806,
  "ÙĥØ§ÙĦ": 126048,
  "ĠÄĳÆ¡n": 102410,
  "ĠhÆ°": 126613,
  "notin": 84880,
  "å·¥": 49792,
  "Ġdiá»ĩn": 104160,
  "Î¸Î¹Î±": 134012,
  "ĉTEST": 55735,
  "ĠZur": 50292,
  "ĠÎµÎ¼Î²": 128311,
  "æĿ¥": 37507,
  "ĉctx": 21660,
  ".detectChanges": 37661,
  "ĠMedina": 85266,
  "<Input": 81551,
  "ÎµÎ»Î»Î·Î½": 136402,
  "ĠBoots": 46568,
  "Ġindefinitely": 56334,
  "ĠStanding": 46327,
  "ÙĦÙĬÙĦ": 110864,
  "Ġtenth": 56766,
  "ĠÙĥ": 88041,
  "_rating": 31746,
  "ĠBar": 4821,
  "ĠApplicationController": 32038,
  "áº¥u": 101551,
  "Ġkod": 66632,
  "ĠÏĦÏįÏĢÎ¿ÏĤ": 135772,
  "Ø¯Ùħ": 100840,
  "Ġpokemon": 38751,
  "Ġmasculine": 61165,
  "ï»Ł": 109251,
  "ĠÎµÎ³Î³ÏģÎ±ÏĨ": 131951,
  "ĠvydÃ¡nÃŃ": 123853,
  "/lic": 6717,
  "ĠÎ´Î¹ÏĢÎ»Î¬": 138075,
  "woman": 22803,
  "ĠRounded": 58550,
  "Ġsupplements": 33690,
  "Ġìĥī": 114927,
  "ÏĦÎ¿Î¼Î±": 127360,
  ".stereotype": 17407,
  "ĠWaves": 81558,
  "alach": 72484,
  "inged": 57658,
  "ĠGonzalez": 52186,
  "ÏģÏĮÏĨ": 134729,
  "ĉsprite": 80299,
  "ìĿ´íĦ°": 108916,
  "Plane": 35670,
  "æ¥µ": 110993,
  "ĠÎºÎ¹Î½Î´ÏįÎ½Î¿Ïħ": 131304,
  "ÎºÎ®": 107385,
  "thought": 61665,
  "_imag": 89709,
  "ĠÐ·Ð°ÐºÐ°Ð·": 88005,
  "article": 7203,
  "Invoker": 48768,
  "Ð¾Ð»Ð¾ÑĪ": 124015,
  "Ġtomb": 44180,
  "ĠÎ¤Î¿Î½": 131390,
  "antity": 5878,
  "RenderingContext": 98258,
  "Moment": 84917,
  "ØŃØ¯Ø©": 103869,
  "ãģ®ãģ§": 105879,
  "ĠISO": 22705,
  "351": 18113,
  "Ġstartled": 89815,
  "ÐĲÐ¢": 108666,
  "Throwable": 28981,
  "ĠDx": 89897,
  "ificacion": 38803,
  "ĠÎµÏĢÎµÎ½": 128543,
  "Ġsoccer": 22963,
  "à¥įà¤Łà¤°": 105461,
  "roduction": 17158,
  "(/^": 51148,
  "Ġperformed": 10887,
  "ÑĸÐ»Ð»Ñı": 125376,
  "Ġradius": 10801,
  "Ġeros": 43219,
  "Ġmicron": 95309,
  "ĠRings": 47380,
  "åĢº": 115664,
  "ĠRestrictions": 93075,
  "ĠmapDispatchToProps": 32741,
  "Ġthem": 1124,
  "Ġai": 16796,
  ">Title": 86379,
  "Ġattracting": 51647,
  "andan": 83908,
  "ĠTier": 36332,
  "ĠÏĥÏħÎ½Î¿Î´ÎµÏįÎµÏĦÎ±Î¹": 138106,
  "ManyToOne": 44194,
  "==Ċ": 21410,
  "ĠBind": 30289,
  "Ġsearchable": 74743,
  "_cfg": 18849,
  "Ġdaycare": 100254,
  "Ġdbus": 74796,
  "ĠÏĥÎºÎŃÎ»Î¿ÏĤ": 140644,
  "Ġsafety": 7296,
  ".handleClick": 74235,
  ".'<": 72212,
  ".Schema": 21786,
  "ĠëįĶ": 102519,
  "Ġ/>\\": 77346,
  ".fac": 55560,
  "\">'+": 41722,
  "()ĊĊĊ": 13407,
  "ãĤĬãģ«": 112586,
  "Ġenviado": 99672,
  "_act": 30470,
  "Ġpainter": 30581,
  "Ø¬ÙĪ": 112735,
  "ĠMinnesota": 19461,
  "indh": 67089,
  "alue": 542,
  ".âĢ¢": 98566,
  "pare": 3462,
  "ĠAri": 42626,
  "ĠSMA": 96996,
  "Ã¢l": 108204,
  "à¥ģà¤¬": 110668,
  "Ġstandalone": 44488,
  "Cor": 10803,
  "ĠTel": 23683,
  "kip": 13694,
  "ÏĨÎµÏħ": 135787,
  "idenav": 50363,
  "ĠHotel": 14894,
  "plets": 90592,
  "endl": 5449,
  "ĉĉĉĊĊ": 66367,
  "itical": 32360,
  "ĠjPanel": 19609,
  ".flash": 44582,
  "ĠJustice": 12007,
  "ĠBorder": 14319,
  "ĠMojo": 96749,
  "Ġparentheses": 75075,
  "ĠìĽĲ": 102467,
  "ĠResolve": 48402,
  "ĠMerrill": 88783,
  "Hosting": 86021,
  ".modify": 75088,
  "ÏĩÎ½Îµ": 141450,
  "ÙĳØª": 119355,
  "Ġnameof": 39994,
  "Ġacrylic": 59741,
  "woord": 73606,
  "charge": 14215,
  "ĠCycl": 72545,
  "ĉRTLI": 80154,
  "íĨłíĨł": 119927,
  "bial": 48059,
  "Assignable": 60129,
  "_DIRECTION": 66165,
  "ß": 155,
  "Ð¡Ð¢": 105996,
  "ĠINV": 68024,
  "_PCI": 72620,
  "ÑĢÐ°ÑīÐ¸": 120786,
  "ĠSelbst": 92552,
  "Ġsanctioned": 74344,
  "ĠModels": 27972,
  "ĠÎ¼Î¿ÏħÏĥÎµÎ¯Î¿": 139446,
  "bedo": 90087,
  "Ġdelimiter": 30120,
  "ycling": 16404,
  "ĠÎļÎµÏģÎ±": 136816,
  "Ġvp": 35923,
  "Ð¸Ð¹": 44938,
  "ĠÎ³Î¹Î¬": 137097,
  "ĠDisposable": 52386,
  "Ġ];": 13385,
  ".speed": 27882,
  "Ġcancers": 51423,
  "ATOR": 12121,
  "Ġcommerc": 95194,
  "ĠShirley": 76337,
  "{EIF": 31827,
  "Ġalf": 85766,
  "Ġcurl": 14284,
  "organized": 63316,
  ":text": 36052,
  "ÏĬÏĮ": 131976,
  "Ġ$(\"": 25120,
  "ØªØŃ": 104525,
  "(power": 84848,
  "eparator": 92740,
  "ĠRalph": 40904,
  "ĉkeys": 81212,
  "ĠSCO": 64234,
  "_Title": 73101,
  "ĠÎ³ÎµÎ³Î¿Î½ÏĮÏĦÎ¿ÏĤ": 141701,
  "thest": 61943,
  "ĠComple": 43454,
  "979": 25476,
  "ĠåĽ¾": 91967,
  "Exposed": 84041,
  "--;": 54354,
  ":o": 94657,
  "ĠBowl": 20904,
  "ĠDaughter": 64394,
  "ĉcontainer": 54390,
  "Ġlogic": 12496,
  "\".$": 8804,
  "ĠÛĮØ§ÙģØª": 121918,
  "ĠAcer": 77077,
  "Often": 78013,
  "Ġdl": 28613,
  "Ġsegundo": 45387,
  "Ġëį°": 103659,
  "ĠGundam": 88476,
  "_bal": 57541,
  "ĠLane": 27109,
  "(tr": 7779,
  "Ġfran": 22944,
  "eprom": 54045,
  "Ġdk": 41304,
  "<number": 41082,
  "Ġë§¥": 124191,
  "@SpringBootTest": 74316,
  "assigned": 40121,
  "Ġhentai": 46401,
  "ÄŁÄ±nÄ±": 102308,
  "Î³Î¿ÏħÎ¼Îµ": 134107,
  "Ġpol": 1499,
  "Ġcarving": 77791,
  "ĠConverts": 42829,
  "Ġfuel": 10633,
  "_Description": 80787,
  "(Enum": 63482,
  "Î³Î¼ÎŃÎ½Î·": 134343,
  "ĠÎ£ÏĩÎ®Î¼Î±": 131871,
  "ĠresizeMode": 99679,
  "ĠÐ¿ÑĢÐ¸Ð¼": 117288,
  "Ġà¸ŀà¸¥": 124747,
  "Ġmob": 12881,
  "ĠExt": 9634,
  "ĠÐĿÐ°Ð·": 121741,
  "ï¼ĭ": 121409,
  "ĠÎ¿Î¼Î±Î»Î®": 138926,
  "ĠÎµÏĢÎ¹ÏĩÎµÎ¹ÏģÎ®ÏĥÎµÏīÎ½": 129765,
  "ĠÎµÏĢÎ±ÏĨÎŃÏĤ": 136871,
  "andro": 42824,
  "setVisibility": 96892,
  "Ġdown": 1523,
  "_RSA": 78094,
  "Ġdevout": 95662,
  "Ġ><": 30448,
  "ĠBruce": 24785,
  "umber": 900,
  "Square": 34371,
  "ively": 3210,
  "VERTISEMENT": 42326,
  "ĠParse": 15118,
  ".site": 22894,
  "ĠæĭĽ": 124308,
  "ĠNCAA": 34260,
  "ĠJap": 107158,
  "ÎĹÎĿ": 111318,
  "ĠÏĥÏħÎ¼Î¼ÎµÏĦÎŃÏĩÎµÎ¹": 134401,
  "Ġbuzzing": 86424,
  "åºĥ": 108285,
  "Ġintf": 94806,
  "Ġnakonec": 116524,
  ".not": 12238,
  "Ġcomments": 6170,
  "ĠÎ·Î¼ÎµÎ´Î±": 141431,
  "ĠÚ©Ø´ÙĪØ±": 103184,
  "Ġrh": 22408,
  "IRA": 61656,
  "DX": 17001,
  "ĠÏĢÎ±ÏģÎ±Î³Î³ÎµÎ»": 143029,
  "ĠÎ±Î³Î¿ÏģÎŃÏĤ": 130538,
  "Requirement": 76902,
  "Ġì±Ħ": 104965,
  "Ġwritten": 5439,
  "ĠMetals": 93815,
  ".absolute": 57030,
  ">Z": 64516,
  ".Employee": 52655,
  "ĠÏĦÏĮÏĢÎ¿ÏħÏĤ": 134224,
  "Ġhv": 23585,
  "Ġclimbers": 94751,
  "ĠTout": 80905,
  "ĠLuis": 34297,
  "Ġprima": 36413,
  "rebbe": 67591,
  ".offset": 15103,
  "ĠÏĢÏģÎ¿ÎºÎ±Î»ÎŃÏĥÎµÎ¹": 132355,
  "TEX": 26256,
  "ÏģÏĩÎ®": 138306,
  "Ġvillain": 40148,
  "ĠÎŃÎºÎ»ÎµÎ¹ÏĥÎµ": 135749,
  "Ġmamm": 36041,
  "REV": 73587,
  "FormsModule": 46516,
  "*f": 55561,
  "_Total": 87033,
  "',{": 55987,
  "toggleClass": 49379,
  "_tm": 45145,
  "Ġinvesting": 26012,
  "langle": 71900,
  "stvÃŃ": 101707,
  ".has": 7001,
  "Ġ[]);ĊĊ": 42501,
  "Ġtimelines": 88244,
  "Ġslik": 76324,
  "Ġtruy": 116911,
  "ĠtÃłi": 102312,
  "ĠSomali": 85794,
  "Ġseznam": 95968,
  "ĠÎºÎ¿Î½ÏĦÎ¬": 129290,
  "âĢ": 378,
  "ĠkoÅŁ": 107812,
  "emergency": 99908,
  "Ġbec": 106508,
  "Ġneuken": 32383,
  "ĠÐºÐ°ÐºÐ¾Ð¹": 113379,
  "Ġpozit": 119650,
  "(Tree": 81281,
  "ulant": 69733,
  "05": 2304,
  "ÙĦÛĮÙĦ": 105700,
  "NotExist": 46635,
  "ĠëĮĢëĭµ": 126958,
  "ĠÎłÎ±ÏģÎ¬": 132419,
  "IMO": 84504,
  "nga": 63630,
  "_prefix": 14301,
  "maxLength": 62092,
  "(fig": 34110,
  "Ġklin": 126192,
  "()\");Ċ": 47061,
  "ĠAtari": 84976,
  "_amt": 55705,
  "_CANCEL": 48559,
  "Ã¼mÃ¼zde": 118033,
  "ĠØªÙĦ": 105108,
  "Slider": 22226,
  "=head": 24704,
  ".Place": 87775,
  "ĠrÅ¯": 104853,
  "åĬī": 127710,
  "ĠØ§ÙĦØ³": 100649,
  "mist": 80024,
  "settings": 6648,
  "Ġlinen": 55115,
  "Wrapper": 11803,
  "Ġ----------------------------------------------------------------------------": 24793,
  "shaft": 97513,
  "ĠHayes": 53522,
  "isci": 93386,
  "âĢĶeven": 80078,
  "[P": 43447,
  "Ġpotions": 79683,
  "installer": 64316,
  "Ġinvit": 83167,
  "ÑĭÑģ": 111171,
  "(\".\",": 65317,
  "_dic": 40254,
  "Fill": 14788,
  "mor": 57902,
  "ĠsetValue": 29152,
  "ÏĥÏĦÎ·ÏĥÎ±Î½": 140693,
  "Ġmá»Ł": 106335,
  "edes": 59626,
  "Cow": 91015,
  "#####": 68431,
  "Ġdepreci": 73058,
  ".SECONDS": 52012,
  "ev": 5230,
  "ĠÎ²Î¿ÏģÎµÎ¹Î¿Î±Î½Î±ÏĦÎ¿Î»": 141036,
  "à¤¾.Ċ": 120337,
  "ĠÎ¸Î±ÏħÎ¼Î±": 137103,
  "ĠOBS": 76960,
  "é¢ĳ": 66052,
  "ÏĦÎ¯Î´Î¹Î±": 138225,
  "ĠisConnected": 99896,
  "ĠPrim": 36283,
  "ĠSno": 93771,
  "ĠResort": 34937,
  "-',": 54919,
  ".select": 9911,
  "Ġë©": 49208,
  "Ġpossibly": 11000,
  "}>čĊ": 60149,
  "ĠRonnie": 84805,
  "ĠGala": 76541,
  "about": 9274,
  "ĠClint": 56129,
  ".Î»": 131579,
  "ĠAppointment": 57413,
  "Ġmasturbating": 93107,
  "Ġ?>\">": 38851,
  "ĠÎµÎ¾Î·Î³": 131281,
  ".Try": 20411,
  "ĠÏĨÎ¯Î»Î¿ÏħÏĤ": 132192,
  "ĠProzent": 79333,
  "rank": 13430,
  "ĠÎĽÎµÎ²": 142110,
  "ĠDisability": 75368,
  "AMENT": 65368,
  ")index": 78483,
  "ĠPháºŃt": 111856,
  "ENTION": 72983,
  "():Ċ": 4019,
  "ĠÎ±ÏģÎ½Î®Î¸Î·ÎºÎµ": 139490,
  "Ġtrunc": 63950,
  ".resolve": 15033,
  "ĠpÅĻi": 101138,
  "Ġoak": 38971,
  "ĠClassifier": 90286,
  "afb": 97934,
  "ĠfÃ¸rste": 79536,
  "ilibrium": 46780,
  "STM": 36949,
  "Ġterrorist": 20320,
  "Warn": 39344,
  "wood": 6798,
  "Ġtimed": 26245,
  "ĠÑıÐ²Ð»ÑıÑİÑĤÑģÑı": 111788,
  "è´´": 117207,
  "ĠÙĪÙĦÙħ": 120278,
  "ĠÎ¿ÏģÎ³Î±Î½Î¹ÏĥÎ¼ÏĮ": 134008,
  "ĠMarried": 65624,
  "åľ¨çº¿éĺħè¯»": 121535,
  "à¸Ļà¸Ħà¸£": 114128,
  "Ġphp": 25361,
  "ĠÐºÐ¾Ð¼Ð¿Ð»ÐµÐºÑģ": 113076,
  "Ġlc": 37313,
  "_characters": 80160,
  "ĠÏĨÏĮÎ²Î¿": 137294,
  "Ġnam": 16854,
  "ourcem": 97931,
  "ãģ¨ãģĵãĤį": 110229,
  "/es": 39528,
  "iu": 19260,
  "ournaments": 34668,
  "/fire": 54110,
  "neas": 98357,
  "ĠÎŃÎ¸ÎµÏĥÎµ": 136756,
  "ĉtext": 15787,
  "Ġvai": 40586,
  "lÃ¼": 101116,
  "ÏĨÏħÏĢÎ¿ÏħÏģÎ³": 131555,
  "ĠHttpContext": 44655,
  "ĠÎºÎµÏģÎ´Î¯ÏĥÎµÎ¹": 136074,
  "_piece": 49570,
  "à¸§à¸Ķ": 110302,
  "-ad": 26831,
  "-alt": 34450,
  "Ġcurt": 44278,
  "Î¹ÏĥÏĦÎ¿ÏĢÎ¿Î¯Î·ÏĥÎ·": 136043,
  "ĠMoor": 84548,
  ".setUsername": 98082,
  "äºŀ": 106014,
  "ĠFighters": 79067,
  "currency": 16353,
  "Ġoil": 5707,
  "ĉLocal": 83504,
  "WOOD": 87166,
  "Ġà¤¤à¤°à¤¹": 104136,
  ".Transparent": 33988,
  "ĠØ§ÙĦØ¯ÙĪÙĦÙĬ": 121237,
  "+='<": 93257,
  "Ġatte": 93381,
  "ĠOntario": 21193,
  "=set": 69900,
  "ĠLa": 5034,
  "ĠMaps": 28508,
  "è½®": 112229,
  "ĠMicro": 18654,
  ")^": 30876,
  "ĠÑģÐ¾Ð¼": 125319,
  "_tls": 72362,
  "(C": 3100,
  "inity": 13797,
  "ĠUlus": 112320,
  "KEY": 4889,
  ".bp": 90206,
  "Daniel": 41686,
  "Ġmodeling": 34579,
  "ĠDataFrame": 46886,
  "Ġ(){": 94183,
  "ĠPlains": 63911,
  "onium": 90344,
  "_segment": 29161,
  "chart": 16320,
  "Ã¼yorum": 119817,
  "-{": 64447,
  "_arrow": 47666,
  "[Double": 64557,
  "Ġsensor": 12271,
  "DK": 18805,
  "Ġmethods": 5528,
  "rac": 20554,
  "ĠCoupon": 46030,
  "ĠTok": 22164,
  "ÄĽstÃŃ": 117260,
  "ĠÎ¥ÏĢÎµÏģ": 141573,
  "¬¬": 100465,
  "Ġ\"\")Ċ": 15018,
  "Ġpháº¡m": 105167,
  "ĠMac": 7553,
  "fuscated": 81347,
  "anio": 93808,
  "Ġformulaire": 95995,
  "Ġwhiskey": 65354,
  "Ġbarbecue": 62312,
  "ĠÎ¼ÎµÎ¹ÏİÎ¸Î·ÎºÎµ": 138011,
  "Ġspoke": 12570,
  "Ġasset": 9513,
  "ĠØ³ÙĨÚ¯": 102102,
  "Ð²ÐµÑģÑĤÐ¸": 105471,
  "Ġæ¬§ç¾İ": 121600,
  "ĠÎĵÎµÎ½Î¹ÎºÎ®ÏĤ": 136453,
  "ĠØ³Ø¨Ø¨": 119795,
  "ÃŃg": 71437,
  ")))));Ċ": 27677,
  "ÏĨÏİÏĤ": 133164,
  "Ġastonishing": 50013,
  "XYZ": 33296,
  "ĠWhatsApp": 41113,
  "Ġå£°": 126987,
  "Ġnb": 17062,
  "ĠÐ°Ð½Ð°Ð»ÑĸÐ·": 116546,
  "Ġocas": 94352,
  "ierce": 90068,
  "çĬ¯": 109373,
  "Ġeffort": 5149,
  "-clean": 92900,
  "!'": 32483,
  "semicolon": 45861,
  "è¡Ģ": 104473,
  "ĠÏħÏĢÎ¿Î»Î¿Î³Î¯Î¶ÎµÎ¹": 143163,
  "ĠÏĥÏħÎ³ÎºÎ¹Î½Î·": 140894,
  "-axis": 36421,
  "ĠÅ¾en": 112476,
  "ĠÑģÐ°Ð¼Ð¾Ðµ": 126391,
  "ĠÎµÎ½ÎµÏģÎ³ÎµÎ¹Î±ÎºÏİÎ½": 143468,
  "ĠÑĢÑĥÑģ": 110950,
  "ĠÐ½Ð¾Ð³Ð¸": 120119,
  "âĶĢâĶĢâĶĢâĶĢ": 33423,
  "_ut": 61463,
  "ournemouth": 98079,
  "Î¹Î¿Î¹": 128857,
  "ĠPrincipal": 37409,
  "Ġsurgical": 34933,
  "Ġoccas": 9163,
  "Ġ----------Ċ": 31423,
  "*i": 23883,
  "-pills": 91541,
  "respect": 45734,
  "ick": 875,
  "ĠÎ£ÏįÎ½Î´Îµ": 138192,
  "ĉrange": 76187,
  "ILTER": 15675,
  "Ġscipy": 29190,
  "ĠAddition": 79746,
  "pell": 38622,
  "ĠÐ½ÐµÐ»ÑĮÐ·Ñı": 114614,
  "Ġcit": 6681,
  ",g": 22377,
  "ĠÎ¤Î¼Î®Î¼Î±ÏĦÎ¿ÏĤ": 133955,
  "å¥ĳ": 120273,
  "ĠØ±Ø§ÛĮÚ¯Ø§ÙĨ": 117962,
  "<Button": 51832,
  "Ġpreview": 17562,
  "Î³Î³ÎŃÎ»Î»ÎµÎ¹": 140870,
  "nÄĽjÅ¡ÃŃ": 103049,
  "Î¬ÏģÎµÏĤ": 142841,
  "à¹Ĥà¸ģ": 110224,
  "Î²ÎŃÏģ": 127090,
  "ĠØ§ÛĮÙĨ": 100408,
  "ffen": 26734,
  ".clients": 50833,
  "ĉp": 3303,
  ".findAll": 25582,
  "arrera": 83231,
  "Winvalid": 55337,
  "ĠApproved": 52175,
  "ĠRatio": 51848,
  "ĠÏĢÎµÏģÎ¹Î²Î±Î»Î»Î¿Î½ÏĦÎ¹ÎºÎ®": 141238,
  "ÏĨÎ¿ÏģÎ¹ÏİÎ½": 130526,
  "Î¼ÎµÎ¯": 128104,
  "Ø§ÙĬÙĨ": 113730,
  "_flags": 14462,
  "(errorMessage": 71230,
  "Î¼Î¬ÏģÏĩÎ¿Ïħ": 139704,
  "Translate": 28573,
  "Cu": 45919,
  "[string": 14359,
  "klÃ¤r": 78231,
  "interpre": 75814,
  "__.__": 50480,
  "erin": 85509,
  "ĠrowCount": 66245,
  "Ġreducers": 76309,
  "ooky": 67824,
  "âĢĻÑıÑĤ": 116309,
  "Î¹ÏĥÏĦÎ¹ÎºÏİÎ½": 134053,
  "Ġdá»±ng": 103559,
  "ĠØ²ÛĮ": 104220,
  "Ġow": 15941,
  "Ġstormed": 86087,
  "imports": 63988,
  "ĠTalking": 62022,
  ".Url": 42124,
  "ĠãĥĬ": 122666,
  "Ġlu": 25774,
  "Ġà¤ıà¤ķ": 100549,
  "ĠÎµÎ¾ÏĮÎ´Î¹Î¿ÏĤ": 143778,
  "ĠÎ´ÏģÏĮÎ¼Î¿ÏĤ": 136085,
  "ĠErotische": 66752,
  ".sessions": 75565,
  "Ġê·Ģ": 110946,
  "æľºä¼ļ": 126490,
  "kor": 41817,
  "ĠÎ±ÏģÏĩÎ¹ÏĦÎµÎºÏĦÎ¿Î½Î¹ÎºÎ®ÏĤ": 141977,
  "frau": 97215,
  "oogle": 2738,
  "Ġincrements": 62700,
  "Ġinvoices": 65152,
  "Ġsqu": 8330,
  "Ø§ÛĮØ§ÙĨ": 124135,
  "Î¯ÏĥÎ¿ÏħÎ¼Îµ": 129651,
  ".getMin": 96979,
  "ddd": 41460,
  "Ġnoble": 35482,
  "=request": 26229,
  "ÏĦÎ¯Î½Î¿Ïħ": 134445,
  "uÃ¡lnÃŃ": 124103,
  "Ġhostname": 29215,
  "Ġnylon": 52155,
  "Ġplaced": 9277,
  "_html": 9759,
  "Ġduring": 2391,
  "é«ĺæł¡": 117734,
  "Ġé«ĺ": 103372,
  "-del": 48226,
  "forcer": 83110,
  "Ġeffectively": 13750,
  "Ġgust": 30914,
  "Ġcyc": 44448,
  "Ġë°ĶëŀĮ": 124742,
  "ÐµÐ»ÐµÐ½": 103935,
  "ĠuÄįitel": 126975,
  "å°į": 104314,
  ".off": 38454,
  "ĠìłĦìļ©": 107470,
  "ĠSwing": 53186,
  "Î¯ÏĦÎ¹Î´Î±": 143802,
  "}\\\"": 47969,
  "Ġprized": 87630,
  "ĠÎºÎ±ÏĦÎ±ÏĥÏĦÏģÎ¿ÏĨÎ®ÏĤ": 139798,
  "ĠçĲ": 108138,
  "ysterious": 97499,
  "ĠÐ¾ÑĢÐ³Ð°Ð½Ð¸Ð·Ð°ÑĨÐ¸Ð¸": 115438,
  "essages": 3822,
  ".connection": 20928,
  "ĠÎ·Î¼ÎµÏģÎ®": 135046,
  "AxisSize": 66527,
  "Ġ../../../": 73249,
  "Ġ\");": 37878,
  "à¸Ĭà¸²à¸§": 113906,
  "ĠApparently": 41974,
  "807": 23178,
  "ĠMillet": 117358,
  "ÐµÐ¿": 67124,
  ".FromSeconds": 77094,
  "ĠÐ¸Ð½ÑģÑĤÑĢÑĥÐ¼ÐµÐ½ÑĤ": 124400,
  "onus": 28798,
  "ĠÏĥÏħÎ½ÎŃÏĩÎ¹": 135970,
  "Ġmaternal": 50150,
  ".Co": 53214,
  "?(": 14775,
  "berg": 7881,
  "Ġzug": 86011,
  "Bookmark": 73328,
  "_Block": 52879,
  "åĲįåŃĹ": 119395,
  "<Account": 78169,
  "ĠìľĦíķľ": 107472,
  "Ġdropdown": 21014,
  "(targetEntity": 65732,
  "ĠÏħÎ»ÏİÎ½": 140804,
  "%x": 27005,
  "ÐµÐ¹Ð½": 115974,
  "Ġteenage": 34268,
  "Î»ÎŃÎ¿Î½": 125667,
  "ophilia": 93655,
  "ait": 1339,
  "ĠÎºÎ¿Î¹Î½ÏĮÏĦÎ·ÏĦÎµÏĤ": 140184,
  "ĠÏĢÏģÎ¿ÏĨÎ±Î½": 131289,
  "874": 25822,
  "ĠMultiple": 29911,
  "neapolis": 39576,
  "Ġsop": 71304,
  "xlim": 98514,
  "ãĥĸãĥŃ": 118565,
  "à¥įà¤¯à¤ª": 123153,
  "Ġknih": 108926,
  "ĠtypeName": 53700,
  "ĠGlouce": 87586,
  ".getDay": 71934,
  "JECTION": 64856,
  "-fontawesome": 96948,
  "949": 24680,
  "ÎºÏĦÎ¹ÎºÎ®ÏĤ": 135414,
  "à¸±à¸¡": 104593,
  "ĠØ·Ø¨": 106110,
  "__).": 60143,
  "çµĤ": 105721,
  "Î¸Î®ÎºÎµÏĤ": 128546,
  "ĠBoeing": 42959,
  "utdown": 18959,
  "ĠÏĢÎ»Î±Î¯Ïĥ": 128082,
  "imate": 3509,
  "ennie": 99128,
  "Ġsalir": 79222,
  "_CATEGORY": 40384,
  "ĠÎ½ÏīÏģÎ¯ÏĦÎµÏģÎ±": 132554,
  "ĠIk": 42433,
  "$result": 14578,
  "032": 21040,
  "ĠØŃØ³Ø§Ø¨": 109767,
  "ÑĥÑĩÐ°": 125575,
  "(--": 40102,
  "logs": 22856,
  "ĠÙĨÛĮ": 104078,
  ".OR": 78997,
  "ĠJog": 87507,
  "ĠDU": 48155,
  "ughter": 7490,
  "Ġpcs": 71399,
  "Î¼Î¹ÎºÏģÎ¿Î½": 142423,
  "COMPLETE": 83069,
  "ĠCoroutine": 88566,
  "ws": 9092,
  "Ġlocation": 3813,
  "ĠÎ´Ïī": 129487,
  "âĢľBut": 61603,
  "ĠEngl": 99730,
  "Ġsurv": 7550,
  "ĠÏĥÏĢÎ¹ÏĦÎ¹Î¿Ïį": 135487,
  ".'.$": 67489,
  "Ġãĥ©": 109240,
  "Ġtoute": 43905,
  "ĠRoof": 47449,
  "Ġinitialized": 17719,
  "ĠÐ¿Ð°Ð´": 125476,
  "nest": 22129,
  "ĠÏĥÏĦÎ·ÏģÎ¯Î¶ÎµÏĦÎ±Î¹": 134840,
  "ĠBit": 6631,
  "hover": 18043,
  "ĉtests": 79316,
  "Ã©rc": 96114,
  "Ġunders": 26445,
  "istry": 5050,
  "ĠMent": 49693,
  "-platform": 55125,
  "Ġamidst": 65904,
  "mil": 73370,
  "íķĺëĬĶ": 44005,
  "ĠLuck": 29872,
  "(cl": 10050,
  "_CB": 50033,
  "Ġcott": 97629,
  "ĠdeÄŁerli": 126039,
  "ĠIQueryable": 62889,
  "Ġhappiness": 23871,
  "UiThread": 76492,
  "Policy": 14145,
  "stru": 103452,
  "reverse": 26992,
  "Ġla": 1208,
  "containers": 40499,
  "ILI": 82334,
  ".HashSet": 45986,
  "ATEGY": 98321,
  "\\Request": 14536,
  "Ġby": 555,
  "(let": 22799,
  "ĠÎ³ÎµÏģ": 142726,
  "Ġdividing": 50802,
  "Ġendure": 46753,
  "/Math": 99817,
  "Ġbronze": 40907,
  "transactions": 42944,
  "/sources": 97790,
  "Ġï½ľ": 118312,
  "ãĤ¹ãĥĨãĥł": 120744,
  "ĠHardy": 58374,
  "ĠdÃ¶nem": 103904,
  "Ø²Ùĩ": 105830,
  "Ã¨tre": 99746,
  "ĠGra": 40113,
  "ĠOpt": 16963,
  "ĠÎŃÎ½Î¹Ïī": 138955,
  "Î´Î¯ÏĦÏĥÎ±ÏĤ": 140845,
  "ĠCapability": 99651,
  "ĠÐ³ÑĢÐ°Ð´Ñĥ": 120196,
  "=\"<?=": 16028,
  "ĠÏĦÏģÎ¬ÏĢÎµÎ¶Î±": 134359,
  "Ġativ": 69432,
  "Ġmalfunction": 72287,
  "JavaScript": 30575,
  "_more": 37764,
  "ĉim": 55992,
  "/Input": 77918,
  "fontWeight": 62981,
  "ĠOccupation": 99452,
  "(parsed": 49562,
  "Ġcerv": 52664,
  "TYPO": 63663,
  "_tuple": 22522,
  "Tmp": 37086,
  ",\"Ċ": 43352,
  "double": 4429,
  "_factory": 25255,
  "hydro": 67229,
  "ĠSheila": 95175,
  "ĠwxT": 75297,
  "(locations": 99391,
  "âĢĻÄ±n": 103829,
  "ÙĦÛĮÙĩ": 111837,
  "ĠÎĳÏĢÎ»Î¬": 142751,
  "izona": 15732,
  "ills": 3385,
  "(am": 76133,
  "bash": 47316,
  "ĠÏħÏĢÎ¿Î´Î·Î»ÏİÎ½ÎµÎ¹": 141809,
  ".')Ċ": 21537,
  "ĠRoch": 36969,
  "|-": 51954,
  "Sr": 80026,
  "_rep": 26614,
  "Ġexcel": 25555,
  "PP": 4505,
  "Ġlanguages": 15823,
  "Ġverz": 74297,
  "owards": 71839,
  "è²¸": 110726,
  "ÑħÐ°": 105945,
  "ĠÎºÎ±Î»Î»Î¹ÏĦÎŃÏĩÎ½ÎµÏĤ": 135573,
  "ĠIndexed": 85504,
  "-by": 14656,
  "ï¿½s": 52063,
  "ĠdÅĻÃŃve": 123454,
  "ĠrÃ©gion": 88100,
  "Â£o": 85391,
  "ÑģÑĤÐ²Ð°": 94071,
  "_VERBOSE": 53202,
  ".rows": 19896,
  "_Value": 28967,
  "ĠÎµÎ¾ÏħÏĢÎ·ÏģÎµÏĦÎµÎ¯": 138549,
  "PJ": 95335,
  "Seed": 42571,
  "Ġgetting": 3794,
  "éĺħ": 106856,
  "Î¿Ïģ": 100896,
  "ĉshort": 49081,
  ".fast": 40670,
  "ÏģÏĮÏĢÎ¿ÏħÎ»Î¿ÏĤ": 142215,
  "+++": 63830,
  "Ġ';ĊĊ": 94344,
  "ĠJakarta": 64133,
  "à¸²à¸Ħà¸²à¸£": 109196,
  "YD": 126655,
  "Insets": 13261,
  "ĠØ¨Øµ": 114059,
  "Ġarbitration": 54708,
  "Î£ÏĦÎ·": 129486,
  "ĠÎ³ÏģÎ®Î³Î¿ÏģÎ±": 131105,
  "ocities": 81549,
  "ĠCake": 33860,
  "Ġchung": 105976,
  "Ġyapacak": 124267,
  "ĠÎµÎ¼ÏĨÎ±Î½Î¯Î¶ÎµÏĦÎ±Î¹": 131676,
  "Ġuniq": 55252,
  "ically": 2740,
  "pets": 65301,
  "SError": 19778,
  "Ġfast": 5043,
  "ĠLor": 69830,
  "_refer": 74486,
  ".toBe": 84546,
  "ĠÎ»ÎµÏĢÏĦÎ¿": 130222,
  "ĠBrno": 115358,
  "ĥģ": 37209,
  "Ġrepair": 13023,
  "ĠÎ¹ÏĥÏĩÏħÏģÏĮ": 132872,
  "ĠÎ¤Î¶ÏĮÎ½ÏĥÎ¿Î½": 141776,
  "ĉangle": 83441,
  "_users": 16752,
  "racat": 120274,
  "ĠChennai": 64921,
  "ãĤ¹ãĤ¯": 115592,
  "ĠëĤ´ìļ©": 109842,
  "ĠÎ±ÏĥÏĨÎ±Î»ÎµÎ¯ÏĤ": 142566,
  "-performance": 58574,
  "NgÆ°á»Ŀi": 120403,
  "Ġtoi": 76420,
  ".Visibility": 40918,
  "ĠÎľÏĢÎ±Ïģ": 133784,
  "ĠMonday": 7159,
  "paginator": 79456,
  "ç½®": 22324,
  ".Iter": 37338,
  "ĠÎĶÎ¯Îº": 135140,
  "ĠCAST": 62787,
  "(items": 25331,
  "browser": 23279,
  "Ġmáº¡ch": 113929,
  "ĠÏĢÏģÎ¿Î¿Î´ÎµÏħ": 135744,
  "ugi": 51640,
  "(pc": 48180,
  "catch": 7320,
  "ĉIterator": 66856,
  "ĠÎĵÎµÏīÏģÎ³Î¹Î¬Î´Î·ÏĤ": 135532,
  "[((": 47619,
  "_ELEM": 91804,
  "_disconnect": 69072,
  "ĠActivities": 44382,
  "facebook": 21617,
  "ĠÙħÙĪÙĨ": 124850,
  "ÏĥÎºÎ¿Ïħ": 142847,
  "æ±½è½¦": 110585,
  "ĠResourceType": 98901,
  "ĠÎ±ÏĢÎ¿ÎºÎ»ÎµÎ¯ÎµÏĦÎ±Î¹": 137521,
  "ĠSavaÅŁ": 113449,
  ".zero": 26932,
  "ÙĩØ±Ùĩ": 124483,
  "Ġconsec": 20503,
  "Ġteased": 79875,
  "%M": 79417,
  "Ġseamlessly": 61440,
  "Ġsixth": 26084,
  "Commission": 74850,
  "Ġtender": 28682,
  "ĠÏĨÎ¬ÏģÎ¼Î±": 132308,
  "ovel": 44435,
  "_SPLIT": 77515,
  "]};Ċ": 76567,
  "Ġ[%": 24528,
  "drink": 98427,
  ",List": 90650,
  "ĠÎµÎ¼ÏĢÎ¿ÏģÎ¹ÎºÎ¬": 140854,
  "-Cal": 76450,
  "ĠKag": 77091,
  "Started": 33627,
  "ĠÎ¼Î¹Îº": 115458,
  ")?.": 44607,
  "Beh": 10226,
  "ĠÏĮÏģÎ¿Î¹": 136528,
  "ÑĨÑĸÑİ": 103781,
  "Ġ(~(": 72365,
  "å¥ī": 121299,
  "ĠÎ²ÏĮÎ»ÏĦÎ±": 139590,
  "-cloud": 60297,
  "Ġspice": 42786,
  "RID": 63575,
  "ĠÏĨÎ±Î¹Î½": 129333,
  "Ġdungeons": 83485,
  "lÃ¼ÄŁÃ¼": 111675,
  "ĠReflex": 94493,
  "Ġaccol": 86643,
  ".te": 32953,
  "à¥ľà¤ķ": 118903,
  "Ġmutually": 53579,
  "soft": 3594,
  "maxlength": 51556,
  "ĠĠĠĠĠĠĠĠĠĠĠĠĠ": 1078,
  "Ġshipping": 11862,
  "$text": 50524,
  "MORE": 47798,
  "ĠÏĢÏģÎ¿ÏĥÏĦÎµ": 136964,
  "ÎĶÎµÎ½": 122754,
  "ĠÐ²Ð¸Ð±": 115055,
  "Ġìī¬": 126010,
  "ĠÎ´ÎŃÏĩÎ¿Î½ÏĦÎ±Î¹": 142330,
  "kova": 116278,
  "nop": 63913,
  "ãģŁãĤĬ": 115926,
  "ÙĩØ§ÛĮ": 100419,
  "Ġnedeni": 123622,
  "ĠÑĢÐµÐ³ÑĥÐ»ÑıÑĢ": 119373,
  "-available": 94832,
  "ĠÏĮÎ½ÏĦÏīÏĤ": 137572,
  "eer": 35856,
  "ĠJung": 50432,
  "%%%%%%%%%%%%%%%%%%%%%%%%%%%%%%%%%%%%%%%%%%%%%%%%%%%%%%%%%%%%%%%%": 80618,
  "rating": 22696,
  "ps": 1725,
  "-request": 45908,
  "Ġmatrices": 36295,
  "êµŃ": 100654,
  "ĠÐ´Ð°Ð»Ñĸ": 119880,
  "llum": 5565,
  "ìł¸": 84377,
  "ï¼ģãĢįĊĊ": 104480,
  "=back": 93472,
  "Ġç±": 69533,
  "ĠÐ¿ÐµÑĢÐµÐ½": 115119,
  "ìĹ¬": 58126,
  "ĠPROCUREMENT": 31432,
  "ocator": 75428,
  "ç§¯": 106733,
  "\\modules": 51252,
  "omnia": 50405,
  "datatype": 63509,
  "ĠÃ¶lÃ¼m": 113212,
  "Ġduplex": 81268,
  "Ġ>=": 2669,
  "Ġuntreated": 83920,
  "Ġnovamente": 88019,
  "Ġcrack": 17944,
  "Ġconstituency": 65739,
  "Ġpassage": 21765,
  "ĠÑģÑĤÑĢÐ¾ÐºÐ¸": 93814,
  ".unbind": 97738,
  "ĠxPos": 76141,
  "ĠÎ´Î¹Î±Î³ÏīÎ½Î¹ÏĥÎ¼Î¿Ïį": 137057,
  "ĠvocÃª": 25738,
  "ĠÎµÎ¹Î´Î¹ÎºÎ¿ÏįÏĤ": 135712,
  "Ġparce": 66021,
  "ĠÎµÏĢÎ¹ÏĩÎµÎ¹ÏģÎ·Î¼Î±ÏĦÎ¹ÎºÏĮ": 141730,
  "Chan": 47119,
  "']=": 20590,
  "ĠiÅŁlet": 112492,
  "ĠØ³Ø·ØŃ": 108170,
  ".device": 18861,
  "Ġpregn": 12191,
  "ÏĥÏĦÎ±ÏĥÎ®": 137604,
  "ĠÎķÎº": 111487,
  ".argmax": 43891,
  "urate": 62259,
  "ĠÎ¼ÎŃÏĥÏīÎ½": 132420,
  ".AddField": 88544,
  "à¸´à¸Ĺà¸¢": 103489,
  "emo": 6868,
  "(description": 30933,
  "bio": 38423,
  "visit": 28560,
  "Ġwaktu": 86982,
  "Whenever": 65361,
  "existence": 93772,
  "Ø§ÛĮØ·": 111025,
  "instancetype": 34784,
  "/testing": 29901,
  "asal": 116607,
  "ĠAviation": 50047,
  "ĠÐ¡ÐµÑĢÐ³": 112652,
  "ĉĉĠĠĠĠĠ": 22219,
  "(today": 76793,
  "ĠVF": 73992,
  "singleton": 61015,
  "Ð½ÐµÐ¹": 102018,
  "ÏĢÎ®ÏĤ": 128264,
  "ĠCynthia": 75671,
  "ãĥł": 91062,
  "Î¯Î¶Î¿Î½ÏĦÎ±Î½": 139060,
  "ĠReverse": 25263,
  "_lin": 25628,
  "ĠpÅĤ": 95332,
  "Ġsucceeded": 26399,
  "ĠBEL": 69359,
  "ipeg": 47984,
  "endencies": 38431,
  "Ġoctave": 75032,
  "design": 25894,
  "Ġviel": 37177,
  "ĠÑģÐ¿Ð¾ÑģÐ¾Ð±": 103011,
  "ĠInvalidate": 96346,
  "Âŀ": 123043,
  "Ġcomm": 1081,
  "ĠØ¨Ø§Ø´Ú¯Ø§Ùĩ": 106830,
  "hed": 42109,
  "@yahoo": 54733,
  "Ã¤l": 30902,
  ".APP": 55653,
  "Ġsocial": 3674,
  "ĉmat": 60974,
  "ekim": 118963,
  "ĠWINDOWS": 76265,
  "Ġbutton": 3215,
  "ĠHOT": 54473,
  "_rect": 17410,
  "ĉglobal": 19373,
  "Ġadrenaline": 79492,
  ".Search": 33003,
  "Ġdomination": 55949,
  ".Xaml": 45891,
  "ĠDelicious": 85788,
  "ĠQRect": 66149,
  "_SUPER": 87946,
  "elan": 77200,
  "å¤ĩ": 57378,
  "ÎºÏĦÎ¹ÎºÎ¬": 130855,
  "ç§°": 25666,
  ":last": 68792,
  "ÎºÎ¿Î¼Î¼Î±": 143128,
  "_inline": 42971,
  "_ct": 27226,
  "liquid": 54737,
  "Ġemploy": 3539,
  "(MainActivity": 44571,
  "Ġguerra": 86027,
  ".Decode": 57472,
  "Ġbuá»ķi": 117153,
  "Ġscraper": 89134,
  "ĠÎ±ÏĢÎ¿Î´ÎµÎ¹ÎºÎ½ÏįÎ¿ÏħÎ½": 141014,
  "Cancellation": 83398,
  "Ġmagnificent": 41792,
  "ĠMayweather": 98434,
  "Ġplastic": 12466,
  "ĠFranÃ§ois": 85807,
  "ĠÏĥÎµÎ¼Î¹Î½Î¬ÏģÎ¹Î±": 142693,
  "ware": 1698,
  "Ġstrikeouts": 90026,
  ">\")": 83698,
  "ÎºÎ¹Î¼Î±Î½ÏĦÎŃÏģ": 137750,
  "Benef": 60076,
  "Ġroads": 19795,
  "Ġgradient": 20779,
  "ĠÑĸÐ½Ð´Ð¸Ð²": 125777,
  "ĠÐ¯Ðº": 105018,
  "Ġdraped": 90980,
  "alist": 54172,
  "take": 23609,
  "Ġvom": 22752,
  "Ġà¤ıà¤ª": 127869,
  "illum": 77665,
  "Ġbolster": 48227,
  "ĠGron": 87330,
  "ĠÙħÙĩØ±": 111225,
  "-s": 1355,
  "ĠÏĥÏħÏĥÏĦÎ·Î¼Î±ÏĦÎ¹ÎºÎ®": 138107,
  "Ġwaves": 17301,
  "Ġsweets": 76657,
  "Ġlegisl": 15312,
  "ĠÎ¿ÏħÏĥÎ¹": 139644,
  "ĠForget": 61328,
  ")(((": 11379,
  "Ġà¸ªà¸³à¸Ļ": 127562,
  "_cookies": 95258,
  "ĠÎ¼ÎµÏĦÎ±ÏģÏģÏįÎ¸Î¼Î¹ÏĥÎ·": 140576,
  "Ġexpress": 3237,
  "Ġå·Ŀ": 119964,
  "igail": 85306,
  "Ġstomach": 23152,
  "ìĺ¤": 58368,
  "ĠNey": 96148,
  "koliv": 114822,
  "Ġnominees": 60142,
  ".visible": 27763,
  "Ġaltre": 94660,
  "Clickable": 72911,
  "anja": 95051,
  "ĠÏĢÎ±ÏģÏĮÎ½": 129605,
  "Ġfocus": 5357,
  "íı´": 123773,
  "intendo": 20942,
  "Ġlisans": 120259,
  "ĠPassed": 50220,
  "Addr": 14313,
  "ĠÎ¼ÎµÏĦÎ¬": 111785,
  "rens": 78440,
  "executor": 81887,
  "ELLOW": 35771,
  "Ġcondemned": 39025,
  "Ġcurve": 16029,
  "Î¸ÏħÎ½ÏĦÎ®": 132734,
  "iros": 48328,
  "ç»Īäºİ": 127582,
  ".es": 19060,
  "ÏĦÎ·ÏĦÎ¬": 136416,
  "Ġdazzling": 78088,
  "Enums": 72686,
  "Ġmá»Ľi": 93205,
  "ovo": 22460,
  "Ġpodpor": 118560,
  "Ġmental": 10723,
  "Ġgetaway": 70993,
  ".StretchImage": 98170,
  "Ġ???": 52417,
  "Ð¤": 55258,
  "ProcAddress": 70744,
  "Ġiss": 2425,
  ",y": 7509,
  "Edge": 11918,
  "ĠFa": 18145,
  "jpg": 18458,
  "idas": 17449,
  "Ġpackets": 28133,
  "å¥¹çļĦ": 109506,
  "LocalStorage": 91564,
  "Ġtriple": 24657,
  "ĠØªÛĮØ±": 122610,
  ".loop": 45451,
  "reten": 86985,
  "ĠØ¨ÙĪØ¯Ùĩ": 105611,
  ">--": 83257,
  "Ġ++;Ċ": 41940,
  "IM": 1829,
  "Ġìłľì¶ľ": 126052,
  "ĠDomestic": 52849,
  "ĠÎ´ÎµÎ¹ÎºÏĦÏİÎ½": 138097,
  "Ġpossessing": 60662,
  "Ġcabinet": 22685,
  "_js": 27346,
  "enemy": 28928,
  "Ġ\"'.$": 70283,
  "Ġdramatic": 22520,
  "gÃ¼n": 104784,
  "Ð±Ð°": 103128,
  "ĠÎ²Î¹Î²Î»Î¹Î¿Î³ÏģÎ±ÏĨÎ¯Î±": 135736,
  "ĠÏģÎ¯": 132027,
  "Ġshrink": 30000,
  "ĠÐ´Ð½ÑĸÐ²": 118453,
  "Ġtype": 955,
  "Ã¤ft": 57639,
  "Ġpores": 72028,
  "Software": 19805,
  "_exp": 14548,
  "Ġmalware": 40831,
  "(User": 13388,
  "seg": 14949,
  "ĠmÄĽst": 102838,
  "Ġsequ": 11506,
  "Ġrevision": 24493,
  "rick": 12938,
  "ÃĸL": 123157,
  "ĠHOW": 24440,
  "ĠBÃ¶lÃ¼m": 123110,
  "ĠHarrison": 36627,
  "ement": 1133,
  "Ġlegalize": 89013,
  "ÙĥØªÙĪØ±": 120759,
  "ĠZar": 62531,
  "gorit": 87515,
  "'http": 95274,
  "(unit": 25116,
  "Ġprocedure": 10537,
  "flight": 39490,
  "Ġbáº¯c": 127845,
  "Ġqi": 75205,
  "ĠÎĶÎ·Î¼Î¿ÎºÏģÎ±ÏĦÎ¯Î±ÏĤ": 130230,
  "():čĊ": 21812,
  "Ġ×Ĳ": 63060,
  "ÚĨØ§Ø±": 124493,
  "ĠÑĢÐ¾Ð·Ð¿": 107444,
  "(Intent": 31425,
  "Ġconcealed": 44133,
  "ĠÏĥÎµÎ¹": 122254,
  "Ġinvers": 65683,
  "UTURE": 88658,
  "ĠWeinstein": 56682,
  "lamaya": 124257,
  "ĠÐ¿Ð¾Ð´Ð¾Ð¹": 126216,
  "Î½Î±Îº": 132480,
  "ãģ¦": 38144,
  "lesson": 28595,
  "Ġratio": 11595,
  "ĠÎķÎ¸Î½Î¹ÎºÏĮ": 133569,
  "(cm": 52226,
  "Ġserg": 122562,
  "ĠLex": 27917,
  "ĠÑĤÐ¾Ð»ÑĮÐºÐ¾": 74726,
  "_preferences": 66613,
  "ĠSvÄĽt": 123969,
  "à¤Ĥà¤¦à¤°": 114713,
  ".Services": 20690,
  "_REMOTE": 70932,
  "cookie": 16634,
  "ĠlÄ©nh": 109617,
  ".removeFrom": 85304,
  "])[": 41105,
  "ĠÎĳÏĥ": 137742,
  "Estado": 39316,
  "_IDX": 42032,
  "ĠÏĢÎ±ÏģÎ¬Î³ÎµÏĦÎ±Î¹": 139116,
  "_via": 81810,
  "ĠMortgage": 48780,
  ".digest": 76677,
  "ÐĻ": 104042,
  "ĠInstitutes": 73828,
  "\"\".": 70455,
  "SPI": 40879,
  "ĠÐ²Ð°Ð¶": 103366,
  "csr": 78951,
  "LEASE": 20504,
  "Ġam": 1097,
  "Ġclicked": 20505,
  "nl": 16017,
  "ĠActiveSupport": 74101,
  "ĠBowman": 85696,
  "ĠÎ±ÏįÎ¾Î·ÏĥÎ·ÏĤ": 133250,
  "Ġ############################################################################": 87300,
  "(tasks": 71439,
  "ĠServletException": 31191,
  "'):Ċ": 11290,
  "ĠÎĵÎµÎ½Î¹ÎºÎ®": 133450,
  "Ð°Ð³Ð°ÑĤÐ¾": 121645,
  "ĠCour": 6377,
  "Eric": 50554,
  "]]Ċ": 14623,
  "thrown": 87545,
  "ĠTot": 39120,
  "ĠIntroduction": 29438,
  "Traditional": 85782,
  "foundland": 77733,
  "Ġostrov": 119159,
  "ĠÎ±Î½ÎµÎ¾ÎŃÎ»ÎµÎ³Îº": 143572,
  "Ã¦kke": 77223,
  "azzi": 72418,
  "Ġxv": 84511,
  "ìĪĺ": 24140,
  "toPromise": 82759,
  "ĠCrowd": 99084,
  "Ø¬Ø¨": 108985,
  "ĠÙĨØªØ§ÛĮØ¬": 121583,
  "ĠKendall": 74176,
  "Cool": 57850,
  "ĠÎŃÎºÎ±Î½Î±": 135905,
  "Unsigned": 57521,
  "ĠØ¹ÙħÙĪÙħÛĮ": 111461,
  ".ListBox": 74733,
  "ĠÑģÐ¸Ð´": 109656,
  "osloven": 114691,
  "ĠØ§ÙĦØªÙģ": 123294,
  "ÏĩÏĮÎ¼ÎµÎ½Î¿": 131617,
  "(Ø¹": 125251,
  "Key": 1622,
  "IVE": 6674,
  "Ġmile": 14929,
  "toBeInTheDocument": 100139,
  "ĠÎ±ÏģÏĦÎ·": 135880,
  "iterations": 68684,
  "à¤ı": 100714,
  "_filename": 13626,
  "Ġabducted": 84545,
  "ĠÎºÏįÏģÎ¹Î¿ÏĤ": 134414,
  "ĠæĶ": 81190,
  "ÎłÏģÎ¬": 138585,
  "Ġjedn": 104072,
  "ĠÃºnora": 119739,
  ")V": 78490,
  "_mB": 95765,
  ".circular": 29917,
  "xffff": 21158,
  "stellar": 78393,
  "ĠButton": 6739,
  "ĠSnowden": 47460,
  "ĠCorinth": 60893,
  "ObjectContext": 61604,
  ".mb": 95725,
  "Ġsynced": 86128,
  "æĵįä½ľ": 41190,
  "ĠBowling": 84069,
  "ĠRun": 6588,
  "Ġtela": 70866,
  "ĠÑģÐ¸ÑģÑĤÐµÐ¼Ñĥ": 116206,
  "ĠResearch": 8483,
  "Ð¸Ð»Ð¸ÑģÑĮ": 114216,
  "enÃŃ": 97502,
  "Ġ=ĊĊ": 80583,
  "ì¼ĢìĿ´": 119175,
  "Random": 14326,
  "Tab": 8750,
  "CHEDULE": 56322,
  "multiline": 93860,
  "Ġfeast": 53268,
  "Ġbáº¡n": 90537,
  "Ġpour": 5019,
  "ĠåĮĹ": 104179,
  "ĠDoug": 32608,
  "ĠÎĿÎ¯ÎºÎ¿Ïħ": 136455,
  "?(\"": 91859,
  "ĠKle": 27446,
  "ĠÏĨÏīÏĦÎ¿Î³ÏģÎ±ÏĨÎ¯ÎµÏĤ": 131761,
  "HEY": 78689,
  "-pt": 97151,
  "[Math": 72211,
  "éľ": 52597,
  "ĠÙħØ³ÛĮØ±": 123127,
  "ÏģÎµÎ¯Î¿": 132126,
  "ĠFuji": 88153,
  "ĠÎµÎºÏĢÏģÎ¿ÏĥÏİÏĢÏīÎ½": 141953,
  "_MOUSE": 54407,
  "Ġcartoons": 63123,
  "_tF": 80898,
  "Ä±sÄ±na": 115913,
  "Ġgh": 37224,
  "POCH": 71045,
  "ĠâĢľ[": 66850,
  "ĠÎµÏĢÎµ": 130868,
  "EditMode": 74259,
  ".Îķ": 112721,
  "Internal": 11830,
  "Ġdetails": 3649,
  "ĠBible": 17377,
  "Ġlightly": 34504,
  "Ġargue": 18046,
  "Ġquarter": 8502,
  ":mysql": 86376,
  "Ġy": 379,
  "ĠmÃ¼l": 126001,
  "ÏĦÏģÎŃÏĢÎµÎ¹": 130148,
  "Ġ:ĊĊ": 14852,
  "ÑĢÑĸ": 100563,
  "ĠkÄ±sa": 108643,
  "ĠÎ½Î±ÏħÏĦÎ¹": 138849,
  "ĠÎ±ÏĢÏİ": 129437,
  "ÎºÏĦÎ®": 122354,
  "ĉCHECK": 50497,
  "unix": 57746,
  "çģ°": 118954,
  "ĠPeg": 50766,
  "ĠØªØ®ØµØµÛĮ": 123265,
  "tiles": 61982,
  "Ġbodies": 13162,
  "inar": 14080,
  "ĠGarden": 19558,
  "ĉafx": 70714,
  "Ġgenerating": 24038,
  "AREST": 75435,
  "Ġmortal": 49972,
  "reported": 76833,
  "ĠREAD": 19183,
  "ĠÎºÎ±ÏĦÎ·Î³ÏĮ": 140149,
  "ĠNeon": 78064,
  "Ġventil": 71702,
  "atern": 13680,
  "ĠÎºÎ»ÏĢ": 131090,
  "Average": 27388,
  "Token": 3404,
  "Ġisc": 96272,
  "Ġsinon": 37572,
  "ĠEngineers": 49796,
  "}.Ċ": 28374,
  "Ġembraces": 83487,
  "Ġcontested": 57310,
  "Ġpirates": 62575,
  "INE": 4069,
  "Ġloa": 127513,
  ".cells": 51592,
  "(high": 73070,
  ".bindingNavigatorMove": 81325,
  "(fieldName": 69534,
  "Ġorganizing": 35821,
  "Ġfortunes": 68603,
  "Ġgraves": 62281,
  ".JPG": 65921,
  "Ġquestioned": 29440,
  "\\\":": 11955,
  "ĠÏĢÎ±Î¹Î´ÎµÎ¯Î±": 142470,
  "ĠÐ¼Ð°ÑĪÐ¸Ð½": 125895,
  "vos": 48719,
  "await": 11675,
  "(sz": 41671,
  "ĠMAN": 26819,
  "Ġê³¼ìłķ": 125156,
  "ERV": 60429,
  "ÎĹ": 100573,
  "ĠÎµÏĢÎ¹Î»Î¿Î³ÎŃÏĤ": 131370,
  "Ġrus": 53554,
  "Ã¡ty": 118818,
  "Ġhiá»ĩn": 100852,
  ".Web": 6609,
  "Î¬Î»Î»Î¿Ïħ": 131957,
  "Ã¡p": 100485,
  "ÏİÎ½Î±": 124839,
  "âĢĮØ§ÙĦ": 109111,
  "_probability": 69689,
  "Ġrept": 64873,
  "('{}": 70868,
  "matic": 38344,
  "ĠÎºÎ±Î¸Î¿Î»": 135784,
  "Ġsort": 3460,
  "Ġderivation": 96354,
  "ickÃ½ch": 103606,
  "redit": 11063,
  "Ġnejen": 111533,
  "head": 2025,
  "ĠÑĩÐ°ÑģÑĤÐ¸Ð½Ð¸": 119017,
  "/authentication": 91677,
  "RU": 37103,
  "Ġphantom": 70808,
  "needle": 60619,
  ".Score": 83180,
  "ĠgÃ¥r": 71857,
  "/access": 73456,
  "ĠFAQ": 32072,
  "Ġundes": 56838,
  "_absolute": 51974,
  "uyÃªn": 100984,
  "agonal": 24346,
  "ĠserviceName": 70291,
  "Ġpoo": 83810,
  "ĠÏĢÎµÏģÎ¹ÎµÏĩÏĮÎ¼ÎµÎ½ÏĮ": 143453,
  "Ġb": 293,
  "ãĥ³ãĤ¿": 114483,
  "_pre": 10659,
  "ÐºÐ¾ÑĢÐ¸ÑģÑĤ": 103642,
  "Ġbreeding": 40308,
  "Ġscheduled": 13847,
  ".Face": 71897,
  "eee": 35163,
  "ĠTransform": 15583,
  "Sql": 8433,
  "Ġìĸ": 80402,
  "Ġpiv": 42430,
  "ÏģÏģÎ¿": 130000,
  "ĠForCanBeConverted": 80369,
  "]},Ċ": 58452,
  "ĠAug": 5033,
  "ĠÐ³Ð¾Ð´Ð°": 101932,
  "ĠÐ¿Ð¾Ð²ÑĸÑĤ": 114738,
  ".Axis": 81988,
  "ĠCommunic": 16838,
  "UserProfile": 92798,
  "recipe": 26273,
  "POWER": 62436,
  "763": 26083,
  "eza": 120394,
  "Ġengagements": 79971,
  "_AES": 70481,
  "ogn": 4021,
  "403": 13074,
  "Ġuygu": 103848,
  "any": 3852,
  "ĠÏħÏĢÎ¿Î²": 142055,
  "ĠTitan": 28547,
  "ĠÂł": 17529,
  "orc": 50922,
  "Mi": 42987,
  "horizontal": 31729,
  "ÏģÎ¿ÏįÎ¼ÎµÎ½Î·": 141999,
  "Ġvisually": 43395,
  "ĉĠĠĠĠĠĠĠ": 7624,
  "_solution": 51374,
  "Ð¼ÑĸÐ½": 103928,
  "ï½Ľ": 125023,
  "ĠMenschen": 43886,
  "Ġbecame": 6244,
  ".key": 4840,
  "èª°": 112832,
  "ĠØ¬ÙĪÙĨ": 121888,
  "ĠinitialState": 30527,
  "_Cell": 55554,
  "ĠÑĹ": 100833,
  "baru": 90460,
  "Î´ÏģÎ¹Î±": 139364,
  "hat": 9379,
  "Ġted": 42323,
  "âĢĮÛĮ": 106280,
  ".TO": 94265,
  "lang": 5317,
  "Ġfitting": 27442,
  "ĠBBQ": 46377,
  "ĠÃ¶lÃ§": 108213,
  "sed": 32424,
  "ĠFlynn": 40486,
  "ĠÏĢÎ±ÏĢÎ¿ÏįÏĦÏĥÎ¹Î±": 142933,
  "Ã¹a": 106102,
  "))))": 26843,
  "ĠURL": 5665,
  ".websocket": 95215,
  "ĠQByteArray": 50499,
  "Û±Û´": 108571,
  "Ġsauces": 91070,
  "ĠÑĥÐ»Ñĭ": 122215,
  "ĠÐ²ÐµÐ»Ð¸Ðº": 112571,
  "Nd": 40937,
  "illez": 68490,
  "bservable": 8457,
  "aggi": 32716,
  ".fml": 65908,
  "========": 895,
  "Ð½ÐµÐ½Ð¸Ð¹": 119047,
  "_servers": 68607,
  "ĠÐ´Ð¸Ð·Ð°": 120581,
  "ĠmÃ¶": 22951,
  "âĢķ": 63072,
  "ĠÎµÎºÏĨÏģÎ¬Î¶Î¿ÏħÎ½": 136448,
  "Ġreminders": 66697,
  "ÏĮÎ´ÏīÎ½": 130176,
  "ĠWhe": 33104,
  "nbsp": 5792,
  "ĠÎŃÎ´": 128793,
  "leÅŁme": 111805,
  "ÏģÎµÎ¿": 138983,
  "dÃ¼ÄŁ": 110811,
  "Ġtricks": 29862,
  "Alias": 23555,
  "ĠNina": 64988,
  "ĉconst": 4882,
  "_FAILED": 23615,
  "ĠExact": 75580,
  "ĠÎ¸ÎµÏīÏģÎ¿ÏįÎ½ÏĦÎ±Î¹": 133731,
  "ãĥ¼ãĥķ": 112694,
  "!\")Ċ": 23849,
  "Ã¡Å¡": 104985,
  "Tasks": 26527,
  "-info": 12788,
  "drawer": 81227,
  "]],Ċ": 19052,
  "ĠIC": 19845,
  "ĠcÃ³mo": 55996,
  "ellaneous": 41242,
  "ĠÐ¸Ð·Ð¾Ð±ÑĢÐ°Ð¶": 125750,
  "Ġbuá»Ļc": 113246,
  "toBeDefined": 68638,
  "!==": 50114,
  "ono": 10358,
  "_unlock": 20030,
  "Ġrogue": 54991,
  "azen": 83921,
  "ĠÐ²ÑĢÐµÐ¼ÐµÐ½Ð¸": 108084,
  "@email": 72876,
  "_coverage": 74484,
  "ĠÐ³Ð¾ÑģÐ¿": 106632,
  "Slow": 59389,
  "ado": 2172,
  "}\"ĊĊ": 43373,
  "horse": 60775,
  "Visual": 9789,
  "&B": 49339,
  "à¹Įà¸ļ": 117603,
  "Ġajax": 27377,
  "Ġà¤ħà¤²": 103619,
  "eworld": 96872,
  "åĸĿ": 116337,
  "ĠiliÅŁk": 107321,
  "ĠTRUE": 8378,
  "Ġzeigen": 86339,
  "âĦ": 15284,
  "ibs": 55441,
  "Ġmarrow": 83748,
  "Ġlimitations": 9669,
  "ĠÎ±Î½Î±Î¼ÎŃÏĦÏģÎ·ÏĥÎ·": 139203,
  "ä¸įä¼ļ": 107774,
  "Rp": 62830,
  "boxes": 22995,
  "akhstan": 64847,
  "ĠAudit": 48746,
  "ĠÐĺÐ²Ð°Ð½Ð¾Ð²": 127009,
  "Î¼ÎµÎ½Î¹ÎºÎ¬": 143481,
  "ĠÐ¿ÑĢÐ¾Ð²ÐµÑģÑĤÐ¸": 123487,
  "leriyle": 110681,
  "Ġmantra": 68009,
  ".scheme": 79281,
  "_CLI": 92295,
  "ĠÎĿÎ±ÏħÏĦÎ¹": 142601,
  "ĠÎ¸ÎŃÎ»": 129112,
  "Î¹ÏĥÎ¼ÏĮ": 128025,
  "ĠÐ¶ÐµÐ»ÐµÐ·": 112042,
  "ripple": 83473,
  "\"sync": 72820,
  "(screen": 30993,
  "leshooting": 51340,
  ".ConnectionString": 68578,
  "å±ŀ": 103204,
  "è²©": 114622,
  "Pawn": 86413,
  "ÑĥÑİÑĩÐ¸": 109634,
  "Ġvapor": 38752,
  "Cette": 87278,
  "à¤²à¤¤": 109223,
  "ĠDEV": 51995,
  "xmlns": 75255,
  "ĠÎ³Î¯Î½ÎµÎ¹": 128140,
  ".QueryString": 51019,
  "!ĊĊ": 2268,
  "Ã®": 25108,
  "ĠDataSet": 28134,
  "ãİ¡(": 109958,
  "oriously": 70124,
  "Ġjudging": 50790,
  "ĠÎ´Î¹ÎµÏħÎ¸ÏįÎ½ÏĥÎµÎ¹ÏĤ": 136590,
  "ÙĩØ§Ø±": 125176,
  "currentUser": 39980,
  "Ġìľ¡": 117620,
  "ĠÎºÎ¿Î½Î´ÏįÎ»Î¹Î±": 141935,
  "mania": 52668,
  "ĠÎºÎ±ÏĦÎ¬": 105658,
  "Î»ÎµÏħÎ¸ÎµÏģ": 129410,
  "Ġminerals": 34072,
  "icient": 5499,
  "Ġtercer": 89981,
  "ĉLCD": 90384,
  "ĠPres": 4203,
  "TRACT": 42205,
  "Ġvzpom": 125430,
  "ĠvÃ¥r": 97597,
  "Ġaircraft": 14467,
  "ĠTunnel": 66701,
  "ĠMM": 22403,
  "matter": 60065,
  "ĠØ®Ø§ÙĨÙĩ": 111278,
  "ĠDat": 22362,
  "Ġxhttp": 97297,
  "Ġmuddy": 80573,
  "Ġ'['": 49390,
  "ĠÏĢÎŃÏģÏĥÎ¹": 139925,
  "ĠPhD": 30661,
  "Miss": 36412,
  ".=\"": 54139,
  "ĠDá»±": 125829,
  "ĠPARTICULAR": 7807,
  "ĠÏĢÏģÎ¿Ïİ": 131602,
  ".{": 18935,
  "Positions": 46893,
  "ĠSUB": 16532,
  "Ġbudget": 8199,
  "ĠÏĥÏĦÎ®": 128538,
  "ĠPARAMETERS": 69179,
  "Slash": 89104,
  "}": 92,
  "Ġcomput": 3801,
  "ties": 29646,
  "Ġpoverty": 19542,
  "ĠisNaN": 78967,
  "æĸ°èģŀ": 116491,
  "ĠDST": 78200,
  "ÙĨØ¯Ùĩ": 101118,
  "_TAG": 17002,
  "è´Ł": 106941,
  "ĠÐ¾Ð±Ð½Ð°ÑĢÑĥÐ¶": 116221,
  "ĠBrighton": 58519,
  "_Space": 61383,
  "ĠÐ²Ð¸Ð¿": 103002,
  "Ġ$\"": 24334,
  "_associ": 59765,
  "Ġdildo": 37603,
  "ÎĳÎ½Î±ÎºÎ¿": 141418,
  "Ġeapply": 55059,
  "Ð°Ð´Ð¶ÐµÐ½Ð½Ñı": 120672,
  "è±¡": 47523,
  "ĠÏĥÏĦÎ¿Î¹": 128087,
  "ï¼¥": 124606,
  "itecture": 42234,
  "Strike": 73419,
  "eurs": 38647,
  "Ġtraf": 99988,
  "Ġmolded": 85760,
  "ĠGER": 90321,
  "ĠTheresa": 43812,
  "ĠÎ´Î¹Î±Î´ÎµÎ´Î¿": 141051,
  "ocale": 37411,
  "Ġcollide": 67190,
  "/sc": 34574,
  "Ġresilient": 59780,
  "ÐµÐ¼Ð¾": 112394,
  "Ġincreasing": 7859,
  "Ø¯ÙĩÙħ": 115342,
  "polation": 45786,
  "ĠØ³Ø§ÙĦ": 101163,
  ".fields": 13216,
  "Ġfeminism": 53110,
  "ITCH": 26043,
  "arer": 61570,
  "NEWS": 69678,
  "Ð½ÐµÑĢ": 108402,
  "ilton": 16695,
  "Ġobject": 1665,
  "fait": 64965,
  "xffffff": 69347,
  "Ġconjug": 64380,
  ".COM": 21520,
  "Guy": 79315,
  "æª": 109778,
  ".dynamic": 60144,
  "ĠĠĠĠĠĊ": 11187,
  "Ġmarkdown": 51594,
  "Ġcondoms": 79975,
  "enames": 34054,
  "ĠÎ£Î¤": 113513,
  "ONDON": 87228,
  "Ġdrilling": 39662,
  "ĠTrilogy": 97313,
  "à¸¸à¸ļ": 106194,
  "/default": 30089,
  ".warning": 29936,
  "Ġseat": 10954,
  "ãģĹãĤĩãģĨ": 109954,
  "ĠÐ¸Ð·ÑĥÑĩ": 123438,
  "ĠHISTORY": 62879,
  "ÏģÎŃÏĢÎµÎ¹": 116410,
  "ĠEncounter": 92957,
  "827": 24920,
  "ĠLuxury": 52350,
  "Ġhieronta": 81303,
  "Ð´Ð°Ñħ": 125412,
  "ĠPreston": 63325,
  "-panel": 32476,
  "Ġbisc": 60559,
  "Ġfishermen": 74293,
  "ĠÐ½Ð¾Ð¶": 118538,
  "BBBB": 74542,
  "Ġlockdown": 51235,
  "medi": 4503,
  "Ø§Ø´": 100390,
  "ä¸įè¦ģ": 113473,
  "national": 42240,
  "ĠÏĥÎŃÎ½Î±": 142437,
  "Ġradios": 71169,
  "Ġauthoritarian": 59021,
  "ĠÎ¥ÏĢÏĮ": 138717,
  "ĠPolit": 16307,
  "ĠdÃ©velopp": 68866,
  "hung": 57932,
  "Ġdebtor": 94862,
  "_NPC": 92669,
  "ĠHttpServletRequest": 50694,
  "ileged": 69531,
  "inerary": 52653,
  "ĠPirates": 53505,
  "å¼µ": 105714,
  "_row": 8698,
  "ĠArabian": 73698,
  "ĠÎ¿ÏĨÎ¸Î±Î»": 138414,
  "ĠÎºÎ±Î¹Î½Î¿Ïį": 131540,
  "Ã¤llt": 79220,
  "ĠÐ·Ð°ÑģÑĸÐ´": 127528,
  "Î²Î¬Î»Î»": 129431,
  "itÃ¤t": 37714,
  "Sym": 29012,
  "ĠÎºÎ¹Î½Î´": 129184,
  ".Headers": 45068,
  "Ġdescriptors": 48617,
  "assen": 28376,
  "_imm": 72470,
  "Ġchanges": 4442,
  ":red": 42684,
  ".apiUrl": 80169,
  "ĠÙĤØ§ÙĦ": 107581,
  "Ġeerie": 97383,
  "/output": 48116,
  "toMatchSnapshot": 62526,
  "Ġshampoo": 63032,
  "Î¼ÏĢÎ¹Î½Î³Îº": 141674,
  "/profile": 24496,
  "Makes": 92864,
  "ĠCFL": 97416,
  "Ta": 57099,
  "ĠGran": 27622,
  "ĠÎ´Î¹Î±Î½Ïį": 137473,
  "rames": 15988,
  "Î¼Î¼": 121286,
  "ĠÐ³Ð»Ð°Ð·": 119377,
  ".F": 1006,
  "Ð¾Ð²Ð¾ÑĢ": 101430,
  "Ø¬Ø§Ø±": 120089,
  "åĽ¾çīĩ": 47030,
  ".Field": 17525,
  "NSE": 72538,
  "Ġppt": 78584,
  "ĠDangerous": 74132,
  "Ġobserver": 22842,
  "_DESC": 24353,
  "ĠLatvia": 79258,
  "Ø¨Ø§Øª": 103942,
  "à¸Ĺà¸³": 102019,
  "ê³µë¶Ģ": 122898,
  "Ġgv": 56079,
  "Ġscopes": 51698,
  "icester": 51777,
  "channels": 33525,
  "isin": 58504,
  "subscriber": 60305,
  "Ãį": 53320,
  "ĠØ¨ØªÙĨ": 126736,
  "@nate": 109841,
  "Employ": 37132,
  "-i": 18064,
  ".Patient": 96739,
  "ĠErdoÄŁan": 115026,
  "ĠAspect": 81153,
  ".findall": 38533,
  "umpy": 6895,
  "ãħłãħł": 120798,
  "ĠPath": 8092,
  "ĠTObject": 32811,
  "dee": 58994,
  ".last": 9288,
  "ĠÏĢÏģÎ¿ÎºÎ±Î¸Î¿": 143536,
  "=admin": 96990,
  "Film": 52587,
  "Ġxtype": 61714,
  "////////////////////////////////////////////////////////////////////////////////Ċ": 59969,
  "ĠÐŁÑĢÐ¾Ð´": 124630,
  "ĠÎ´Î¹ÎºÎ·Î³": 142150,
  "Ġyouth": 12822,
  "ĠØ¨Ø±Ø®": 105524,
  "andel": 38221,
  "Ġmai": 17154,
  "ĠComputer": 17863,
  "ĠÃ": 1717,
  ".drawLine": 69608,
  ".lt": 83192,
  "(),ĊĊ": 80422,
  ".NORMAL": 74965,
  "ĠFoster": 39274,
  "getNum": 84144,
  "ĵįä½ľ": 37648,
  "ĠbakÄ±ÅŁ": 119666,
  "ĠÙħØ§ÙĦÛĮ": 111510,
  "ĠOffers": 52418,
  "CustomAttributes": 63046,
  "ĠÎŃÏĢÎµ": 132314,
  "899": 22889,
  "Ġ?><": 44369,
  "ĠHear": 57199,
  "ãĤ·ãĥªãĥ¼ãĤº": 114971,
  "Ġfungal": 95447,
  "ĠSeasons": 68300,
  "ĠCase": 11799,
  "æ·±åľ³": 119365,
  "ĠÏĢÎ±ÏģÎ±Î¼ÎŃÏĦÏģÎ¿ÏħÏĤ": 138151,
  "irst": 874,
  "ĠÎºÏħÎºÎ»Î¿ÏĨÎ¿ÏģÎ¯Î±ÏĤ": 131709,
  "?$": 47411,
  "Ð°Ð½Ð½Ñĸ": 105473,
  "-che": 37840,
  "ĠFer": 29562,
  "ĠcÃ´": 105999,
  ".Inf": 34621,
  "ĠgÃ¶n": 123872,
  "ĠFINSEQ": 71227,
  "Ġdepot": 45719,
  "ĠĠĠĠĠĠĠĠĊĠĠĠĠĊ": 90098,
  "ĠAsi": 88810,
  "ĠPaid": 55182,
  "ĠÎ¼Î±Î¸Î®": 134194,
  "Blockchain": 99998,
  "Ġescol": 40754,
  "ÏģÎ¯": 101381,
  "Ġneurotrans": 90351,
  "mie": 74696,
  "igrated": 95930,
  "Ġfreedom": 11542,
  "ĉheader": 21553,
  "privacy": 47921,
  "ĠØ´ÛĮÙħÛĮ": 124189,
  "Ġexecutor": 32658,
  "Ġendpoints": 37442,
  ".stock": 49811,
  "684": 24313,
  "Ġ{{Ċ": 81605,
  "ĉrep": 74831,
  "Ġconverts": 33822,
  "ÏĦÎ¿ÏįÏĦÎ¿Î¹ÏĤ": 135959,
  "Ġevaluate": 15806,
  "(#)": 83988,
  "Ġ});čĊčĊ": 29475,
  "@Autowired": 26824,
  "Ġquelque": 79071,
  "ĠÎºÎ¬": 104589,
  "Ġculture": 7829,
  "ĠÎµÏĢÎ¹Î´Î·": 133288,
  "SHIP": 71320,
  "ĠtráºŃn": 107728,
  "ĠÎµÏħÎ½Î¿": 131911,
  "Ú©": 33411,
  "rovÃ©": 122054,
  "åħ¬å¼ı": 119695,
  "Âħ": 116360,
  "Adv": 24350,
  "axis": 7332,
  "ĠÎ¼Î±Î»Î»": 134462,
  "Ġchronic": 21249,
  "isLoggedIn": 95068,
  "Ġpublication": 17009,
  "ãĥķãĥĪ": 112508,
  "ĠKv": 89421,
  "(person": 30866,
  "ĠVÄĥn": 106422,
  "YYYY": 29289,
  "Ġrecv": 28104,
  "ĉtarget": 29961,
  "ÙĥÙĬØ¨": 127372,
  "Î³ÏģÎ±ÏĨÎ®": 127458,
  "heap": 16341,
  "ĠÎºÎ±Î¸ÏİÏĤ": 116877,
  "_memory": 19745,
  "orses": 23242,
  "Ġwaypoint": 66276,
  "ÏĦÎ±ÏĨ": 142916,
  "Ġï¼ľ": 115261,
  "ĠThai": 27490,
  "æĽľæĹ¥": 121914,
  "ìĹ°": 101347,
  "kp": 49595,
  "ĠÎ¿ÏħÎ´ÎŃ": 136959,
  "ĠÎ¹Î´ÏģÏħ": 133505,
  "ĠInherits": 73567,
  "Ġsollen": 82246,
  "ĠMarilyn": 77460,
  "RowAnimation": 89779,
  "ĠØ±Ø³ÙĪÙĦ": 116760,
  "ĠElementRef": 58790,
  "Ġnn": 11120,
  "Ġdivider": 49795,
  "Ġmuscular": 52192,
  "ĉonChange": 83292,
  "ETIME": 45718,
  "Fashion": 97241,
  "ĠWebsite": 16406,
  "Ġffmpeg": 86012,
  "_steps": 23566,
  "_hpp": 75377,
  "Ġambassador": 37756,
  "Ġprotobuf": 70734,
  "Overall": 28589,
  "Ã¤che": 95750,
  "Ġwondering": 20910,
  "-founded": 83208,
  "ĠTra": 17747,
  "rites": 24143,
  "Ġpupils": 45172,
  "Ġplainly": 65395,
  "Ġchambre": 87938,
  "ãĥ³ãĤ°": 94550,
  "ĠTrap": 53920,
  ".days": 55242,
  "ĠìĤ¬ëŀĮìĿ´": 117559,
  "rostÅĻed": 127025,
  "Real": 13058,
  "Width": 3408,
  "Ġerle": 77220,
  "Winner": 52055,
  "Ġended": 9670,
  "-ajax": 83420,
  "Coming": 57789,
  "ĠÐ±ÑĭÐ»Ð¾": 102720,
  "ĠbaÅŁarÄ±": 119778,
  "Mis": 84259,
  "Ġsued": 42184,
  "Ġcarn": 39438,
  "Ġå¤§éĺª": 126730,
  "ÎºÎ±ÏĦÎµ": 139032,
  "wav": 53146,
  "Ġpackaging": 24066,
  "Ġdeine": 73801,
  "Ġhust": 59750,
  "æŀª": 120588,
  "ĠuluslararasÄ±": 117412,
  "Ġcomun": 44035,
  "BTC": 60218,
  "Ġendorsed": 40728,
  "ĠButter": 31457,
  "ĠæŁ": 104974,
  "ìĤ´": 108281,
  ".rdf": 100113,
  "ĠÎķÏħÏģÏī": 131772,
  "ĠJennifer": 30750,
  "ĠÄĳÃ²i": 125668,
  "Ġpizzas": 88870,
  "_lists": 38388,
  "After": 6153,
  "ĠEO": 93626,
  "ĠĠĠĠĠĠĠĠĠĠĠĠĠĠĠĠĠĠĠĠĠĠĠĠĠĠĠĠĠĠĠĠĠĠĠĠĠĠĠĠĠĠĠĠĠĠĠĠĠĠĠĠĠĠ": 26857,
  "Resources": 11528,
  "ÐµÐ½Ð½ÑĭÐ¹": 106253,
  "ĠÏĢÎ¯ÎµÏĥÎ·ÏĤ": 134773,
  "ĠTV": 6007,
  "ĠÏĮÏģÎ¹Î¿": 131392,
  "Ð°Ð½ÑĮ": 102515,
  "pitch": 54338,
  "ĠHud": 94005,
  "ÑĢÐµÐ·": 103491,
  "Ġdarauf": 75154,
  "losures": 42306,
  "ear": 686,
  "_blocked": 90323,
  "Ġ**/čĊ": 89590,
  "Î³Î»Î¿Ïħ": 132669,
  "ambre": 58566,
  "Ð½Ð°ÑģÐ»ÑĸÐ´": 126813,
  "spir": 50177,
  ".Apply": 37151,
  "modifiable": 85179,
  "Ġcloser": 12401,
  "ĠDag": 78127,
  "Ġnortheastern": 87244,
  "conexion": 44753,
  "\\Support": 17391,
  "allowed": 21642,
  ":ĊĊĊ": 25393,
  "ÏĬÎºÎ®": 128637,
  "ãĤĵãģ§": 104127,
  "/************************************************": 79471,
  "ĠPlatinum": 45092,
  "ĠÏħÏĢÎ¿Î»Î¿Î³Î¹ÏĥÏĦÎ®": 135515,
  "_AMOUNT": 61093,
  "ãĤıãģļ": 124059,
  "chemy": 25055,
  "(\"/{": 66971,
  "åĬ±": 119680,
  "duÄŁu": 105119,
  "Ġláº¡c": 113079,
  "Ġalgorithm": 12384,
  "ĠCele": 23519,
  "Ġ);čĊčĊ": 19299,
  "ublik": 105273,
  "Ġ\")čĊ": 51941,
  "_btn": 15183,
  "ĠIDE": 29075,
  "ĠÎ¼Î±Î¸Î·Î¼Î¬ÏĦÏīÎ½": 139933,
  "ĠKant": 63262,
  "Ġpeculiar": 44797,
  "_LT": 67017,
  "-K": 16222,
  "_VERTEX": 48128,
  "_EXCEPTION": 28385,
  "IMUM": 41125,
  "Ġpreference": 22698,
  "Ġupbeat": 85773,
  "Patients": 86245,
  "Å£i": 71454,
  "Ġreife": 47261,
  "ĠUk": 60413,
  "Ġslice": 16363,
  "Ġthigh": 39771,
  "å§ĳ": 118230,
  "Ġà¤īà¤ł": 110047,
  "_ray": 73790,
  "entlich": 45375,
  "ĠÑĤÑĢÑĥÐ´Ð¾Ð²": 117830,
  "ĉeval": 94513,
  "ãĢĢãĢĢãĢĢãĢĢĠãĢĢĠãĢĢ": 123370,
  "SK": 16074,
  "]</": 32061,
  "VertexArray": 65087,
  "Ġtheor": 46820,
  "Ġlesbi": 82327,
  "processing": 21315,
  "itus": 36891,
  "prit": 40807,
  "Ġseedu": 96384,
  "/sub": 38985,
  "273": 15451,
  "stal": 111722,
  "/MIT": 86263,
  "íļĮ": 62841,
  "Ġsincere": 49424,
  ".discount": 72957,
  ":]": 29383,
  "actics": 69069,
  "ĠÑĥÑĢÐ¾Ð²": 106314,
  "ĠÎ²ÏģÎ¿ÏĩÎŃÏĤ": 133804,
  "ĠWhy": 8595,
  "Â§": 18332,
  "Ġlibertine": 70249,
  "endedor": 62267,
  "Checkpoint": 93788,
  "Today": 15724,
  "ĠRohing": 92260,
  "ÏĦÎµÎ¹Î¿": 139804,
  "Ġjist": 109833,
  "ĠYani": 116232,
  "ëĤĺ": 61415,
  "ĠVitamin": 45774,
  "\";//": 53135,
  "Ã©es": 14014,
  "ĠÐ²ÑĢÐµÐ´": 117174,
  "(['/": 45247,
  "128": 4386,
  "Ġsel": 12069,
  "setProperty": 81407,
  "ĠHighlight": 57094,
  "Ġandroidx": 9719,
  "Î»Î±Î¯Î±ÏĤ": 139185,
  "ciÃ³n": 78031,
  "Ġíĸīìłķ": 121087,
  "(dic": 79210,
  "ì³¤ëĭ¤": 127505,
  "ãĥ¼ãĥª": 111672,
  "Ð°Ñħ": 100676,
  "ined": 1619,
  "ĠDepression": 46904,
  "Ġmaior": 46591,
  "444": 14870,
  "-bs": 57530,
  "ĠEen": 57518,
  "ÐĦ": 111222,
  "Successful": 37474,
  "ĠLind": 28318,
  "ĠÏģÎ¹": 132858,
  ">');Ċ": 22860,
  ">')Ċ": 40966,
  "Î»Î»Î·Î½ÎµÏĤ": 129945,
  "Ġaesthetic": 37637,
  "ĠÄĩe": 82531,
  "oters": 40896,
  "ĠÎ±ÏĨÎ¿ÏģÎ¬": 128044,
  "Ġclient": 3016,
  "(attributes": 61681,
  "/internal": 32068,
  "ÑıÐ¶": 104326,
  "1": 16,
  "(pow": 73607,
  "ĠØ§ÙĦØ¯Ùħ": 122712,
  "BJECT": 10686,
  "attern": 3307,
  "ĠÎ³Î½ÏİÎ¼Î·": 131382,
  "Î»Î»ÏīÎ½": 133076,
  "<TreeNode": 81790,
  ".checkNotNull": 98309,
  "ĠP": 393,
  "Ġmolec": 17085,
  "ĠOLED": 72052,
  "erli": 107603,
  "amily": 5285,
  "Ġamused": 86324,
  "404": 7507,
  "Ġdissect": 75050,
  "ë¡ł": 103778,
  "ĠÎµÏħÎ¸ÏįÎ½Î·": 129949,
  "ĉsub": 29724,
  "è¿ĳ": 60358,
  ">.": 14611,
  "olojik": 112590,
  "à¥Īà¥¤Ċ": 102269,
  "ĠAlign": 50572,
  "/user": 12001,
  "ĠÎļÎ»Î¬": 142723,
  "Ġpredict": 7168,
  "ÎĮÏĢÏīÏĤ": 128936,
  "ëĬĶ": 16969,
  "Ġfrau": 38131,
  "ĠÎºÏĮÏĥÏĦÎ¿ÏħÏĤ": 131225,
  "/ms": 59734,
  "Ġcoveted": 70665,
  "_CHANNELS": 78126,
  "Ġcandle": 38899,
  "ĉdamage": 78217,
  "Ġenriched": 69671,
  "\"And": 47016,
  "ĠNEG": 85165,
  "Ġmapped": 24784,
  "544": 21239,
  "ĠPhÃº": 116377,
  "Ġroasted": 54662,
  "_RULE": 51595,
  "airport": 87715,
  "Ġæİ¨": 121157,
  "UpInside": 43556,
  "Ã³st": 95952,
  "ĠÎĶÎ¹Î´": 137172,
  "stell": 42237,
  "\\Message": 63109,
  "èªŃ": 98499,
  "ĠÑģÐºÐ°Ð·": 102513,
  "VI": 26376,
  "ĠÐºÐ¾Ð½ÑĦÐµÑĢÐµÐ½": 122872,
  "Â¨": 76105,
  "Ġvocalist": 96665,
  "ĠÐ°Ð¼": 123527,
  "filters": 25630,
  ".locations": 80682,
  "vak": 54721,
  "ĠÎ¿Î½Î¿Î¼Î¬Î¶ÎµÏĦÎ±Î¹": 134409,
  "Ġcompleto": 56511,
  "ĉbytes": 71426,
  "ĠWindow": 13956,
  "ĠØŃØªÛĮ": 112845,
  "Ð¿Ð½Ñı": 110549,
  "ç½ļ": 118269,
  "onym": 7987,
  "ĠApr": 5186,
  "ĠBrooke": 79561,
  "_frac": 71458,
  "ĠÎµÎ¹ÏĥÎ±Î³Î³ÎµÎ»ÎŃÎ±ÏĤ": 138735,
  ".Pattern": 53126,
  "ĠASUS": 75770,
  "Ġstandard": 5410,
  "Î¯Î½Î¿Î½ÏĦÎ±Î½": 140547,
  "ÏģÎ¹ÎºÎŃÏĤ": 129187,
  ".argument": 79850,
  "aget": 85163,
  "ĠÎ±ÎºÎ¿Ïį": 129929,
  "<Float": 71799,
  "ĠItems": 19974,
  "ĠÐºÑĥÐ»ÑĮÑĤÑĥÑĢÑĭ": 126332,
  "ĠÐ´ÐµÐº": 107614,
  "Ġcerts": 75506,
  "UST": 8721,
  "ĠÎµÎ¾Î±Î³ÏīÎ³Î®": 135666,
  "ĠiP": 77586,
  "obel": 78206,
  "-ring": 77029,
  "Ġperv": 47274,
  "ê¿": 123225,
  "ml": 1029,
  "ĠÐ¼ÐµÑĢÐµ": 120214,
  "={'": 13150,
  "*)_": 83771,
  "orage": 2747,
  "ĠGenetic": 75226,
  "=pos": 100238,
  "593": 22608,
  "ĠGmbH": 32577,
  "ĠÎ¼Î¿Î¹Î¬Î¶Î¿ÏħÎ½": 140929,
  "ĠÐĵÐ°ÑĢ": 119280,
  "ìĹĦ": 115896,
  "ĠWarp": 78910,
  "IVING": 73246,
  "DownList": 66996,
  "(mb": 88653,
  "ĠolmadÄ±ÄŁÄ±nÄ±": 117426,
  "telegram": 82769,
  "ÏīÏĦÎµÏģ": 121251,
  "Od": 67408,
  "ried": 4588,
  ".propTypes": 30595,
  "ride": 1425,
  "ĠìĽĶ": 103934,
  "ĠÎłÎ¿Î»Î¹": 121911,
  "Ġeigentlich": 84980,
  "ĠComet": 99198,
  "WHO": 78847,
  "æ¼Ķ": 102446,
  "Fabric": 82831,
  "[]){Ċ": 80418,
  "ĠHospital": 15429,
  ".LayoutInflater": 27342,
  "ĠLyon": 56301,
  "sembler": 36501,
  "ĠPressure": 40090,
  "NS": 2507,
  "ĠKare": 96331,
  "ĉxml": 49560,
  "ACC": 30542,
  "()));ĊĊ": 26196,
  "(strcmp": 34116,
  "afety": 39718,
  "enario": 21044,
  "Ġwear": 10051,
  "_recent": 63461,
  "former": 35627,
  "Ġscattering": 72916,
  "']ĊĊĊ": 59171,
  "ograph": 3257,
  "preserve": 93982,
  "ĠÎķÎ¡Îĵ": 141300,
  "ĠÎ±ÎºÎ¿ÏįÎ³ÎµÏĦÎ±Î¹": 141840,
  "Ġrelentlessly": 91270,
  "ĠROUND": 77238,
  "Ġhandler": 7158,
  "ĠWait": 14144,
  "_upgrade": 68894,
  "Ġstatistic": 43589,
  "Hey": 19182,
  "ĠÏĨÏĦÎ¬ÏĥÎµÎ¹": 131880,
  "å¯¶": 115023,
  "ãĥŀãĥ³": 111817,
  "ĠHaiti": 56290,
  "ĠÎķÎºÏĦÎµÎ»Îµ": 142592,
  "uego": 27779,
  "YN": 25259,
  "tas": 48642,
  "Ġdescribed": 7633,
  "ĠÃºspÄĽ": 112411,
  "é«ĺãģĦ": 126574,
  "ĠBitcoin": 13428,
  "ĠÎĳÏĨÏģÎ¹ÎºÎ®": 138952,
  "ĠVerizon": 43414,
  "Î»Î¿Î³Î¯Î¿Ïħ": 134584,
  "ĠÎ±ÏĨÎ®ÏĥÎµÎ¹": 135994,
  "Ġwav": 54907,
  "partners": 98131,
  "ÐµÑģÑĤÐ¸": 89338,
  "Ġá¼Ĳ": 110533,
  "ĠDinner": 49191,
  "(nc": 58168,
  "_SCROLL": 61530,
  "ĠpoÅĻÃ¡d": 110686,
  "ĠÑĦÐµÐ´ÐµÑĢÐ°Ð»ÑĮ": 123368,
  ".RequestMapping": 38472,
  "-east": 40607,
  "ĠREALLY": 66800,
  "Î¯ÏĩÏīÏĤ": 139765,
  "ovic": 41145,
  ".ref": 11300,
  "Ġhur": 13113,
  "ARING": 92123,
  "Ġkafka": 68952,
  "ĠÐ¿ÑĢÐ¾Ð´ÑĥÐºÑĨÑĸÑĹ": 126718,
  ".slim": 75357,
  "Î¯ÏĥÏī": 127565,
  "Ġweir": 98086,
  "ĠConstruct": 19196,
  "Ġrady": 115846,
  ".$$": 77566,
  "ä¼ĺåĬ¿": 120711,
  "_WARNINGS": 84930,
  "Ġhobbies": 64405,
  "ĠÐ¼Ð¾Ð¶ÐµÑĤÐµ": 114355,
  "ĠéĽ": 103067,
  "Ã¬n": 105145,
  "riter": 2604,
  ".toolStripButton": 67672,
  "pike": 65546,
  "è¦ģæ±Ĥ": 105318,
  "Ġburgeoning": 90669,
  "-real": 75895,
  "ĠSpecialists": 92794,
  "ĠOdds": 84457,
  "ĠbuttonWithType": 84924,
  "Ġspiral": 42197,
  "Initializer": 45351,
  "]];Ċ": 13507,
  "dra": 23044,
  "ĠÎĳÎ¹Î³Î±": 130659,
  "Ø¶ÙĦ": 106120,
  "Products": 18219,
  "Ġdeadlines": 58982,
  ",result": 59341,
  "ĠRout": 93122,
  "ï¾Ĩï¾Ĩï¾Ĩï¾Ĩ": 108509,
  "è®¯": 112608,
  "ĠMORE": 18954,
  "?>ĊĊĊ": 69886,
  "ĠOEM": 41862,
  "ĠÎ·Î³ÎŃÏĦÎ·ÏĤ": 138255,
  "ported": 36626,
  "ĠÑĤÑĢÐ°Ð½ÑģÐ¿Ð¾ÑĢÑĤ": 114272,
  "Ġdop": 27420,
  "ĠISBN": 34526,
  "Ġcasc": 76057,
  "Ġcompromising": 76100,
  "Ġ(),": 39204,
  "ĠTake": 12040,
  "Ġsilent": 21737,
  ".Format": 10183,
  "Î±ÏĨ": 131530,
  "ĠExtended": 41665,
  "Ġtactical": 39747,
  ".channels": 40995,
  "è°": 39013,
  "ĠÚ©Ø¯": 113986,
  "Ġafr": 86064,
  "-AA": 64764,
  "ĠRis": 54463,
  "veÅĻej": 118550,
  "=/": 24167,
  "Ġentertaining": 30311,
  "[data": 26810,
  "_factors": 74140,
  "rible": 12560,
  "_gateway": 65149,
  "ĠØ§Ø·ÙĦØ§Ø¹Ø§Øª": 105370,
  "dbe": 84506,
  "577": 23411,
  "[ii": 31924,
  ".pop": 8452,
  ".ContextCompat": 94664,
  "queue": 4687,
  "ĠãģĮ": 108911,
  "Ġmushrooms": 48251,
  "ÐµÑĢÐ¸Ð½": 122015,
  "buckets": 93517,
  ".Monad": 76998,
  "ÛĮØ§Øª": 113485,
  "čĊĠĠĠĠĠĠĠĠĠĠĠĠčĊ": 80754,
  "Ġrecounts": 95889,
  "Ġ//================================================================": 87093,
  "bab": 48822,
  "Datum": 69136,
  "Î¼ÎµÏĥÎ¬": 137394,
  "ĠRipple": 70807,
  "et": 295,
  "ĠRail": 24720,
  "iously": 13610,
  "Ġsearches": 27573,
  "465": 19988,
  "ETING": 86951,
  "_CONFIRM": 66034,
  "Ġkonnte": 65115,
  "Ġayak": 110801,
  "<button": 22753,
  "ĠDungeon": 51947,
  "ç¼©": 118504,
  "_:": 24089,
  "ĠÏĥÏħÎ¼ÏĨÏīÎ½Î¯Î±": 129395,
  "_match": 10938,
  "resolved": 40847,
  "ĠÑĥÐ·": 109678,
  "Tv": 79023,
  "iciÃ¡lnÃŃ": 123377,
  "ĠØ§ÙĦØ£Ùģ": 127368,
  "ĠÙĨØ§Ø¯ÙĬ": 123573,
  "Ġbloss": 50823,
  "lov": 36247,
  "building": 24177,
  "Ġ'/')": 65533,
  "BTTagCompound": 94475,
  "Ù¥": 124043,
  "ublic": 476,
  "-fat": 64354,
  "Ġmasks": 27227,
  "áº£o": 100766,
  "_BOUNDS": 92725,
  "-negative": 62035,
  "Ġsizing": 64101,
  "Ġsuitability": 81728,
  "_exc": 46747,
  "'}ĊĊ": 68725,
  "Ġsouth": 10007,
  "Ġvideot": 72374,
  "xec": 53450,
  "bere": 62386,
  "GROUND": 32787,
  "argon": 71921,
  "[max": 38823,
  "axes": 20589,
  "avatar": 12229,
  "âĢķâĢķ": 103794,
  "ĠÎ±ÏĢÎ±Î¹ÏĦÎµÎ¯": 131867,
  ".Organization": 95148,
  "/category": 47433,
  "Ġe": 384,
  "ĠstejnÄĽ": 110120,
  "ç¦®": 120630,
  "ĠÎ±ÎºÏģÎ¹Î²Î®": 136512,
  "ĠÎı": 139140,
  "Primitive": 34413,
  ".initialize": 27060,
  "+Sans": 85326,
  "(chunk": 42677,
  "ĠBarker": 81504,
  "ĠNE": 8014,
  "Ġnoct": 93101,
  "Ø¶ÛĮ": 111905,
  "_padding": 41826,
  "ĠÎĻÎ´": 135217,
  ".updated": 45706,
  "ĉsig": 85941,
  "#endif": 2730,
  "ĠGamma": 58782,
  "âĢĮØ±Ø³": 124152,
  "ÐŁÐŀ": 123230,
  ".Weight": 74891,
  "Ġlifecycle": 48608,
  "obby": 10530,
  "Ø§Øµ": 100905,
  "/man": 73292,
  "ÏĦÎ¯Î±": 125332,
  "ĠìĨ¡": 112822,
  "Ġâīł": 95404,
  "Ġregister": 4254,
  "Ġflowing": 36612,
  "limits": 42178,
  "ĠÐ²ÑĭÐ´ÐµÐ»": 111934,
  "/column": 90374,
  "ĠÐ¸Ð³": 71622,
  "ÏĢÏģÎ±ÏĤ": 131758,
  "ĠÎ½Î¿Î¼Î¿Î¸ÎµÏĥÎ¯Î±": 132935,
  "_success": 19147,
  "weakSelf": 58932,
  "à¸ľà¸¡": 125329,
  "astos": 54093,
  "ÐºÐ¾Ð²Ð°": 109769,
  "Containing": 87741,
  "ĠPhilosoph": 38356,
  "ãĥĵãĥ¼": 127020,
  "Ġmandated": 65509,
  "Ġclouds": 30614,
  ".rollback": 59111,
  "Ġcassette": 82358,
  "/stats": 96033,
  "getDrawable": 89598,
  "Î»Î±Î¼Î²Î¬Î½Î¿ÏħÎ½": 133896,
  "ĠAub": 39687,
  "Ġolay": 107633,
  "Ġoutraged": 72364,
  "Ġtakip": 109917,
  "[a": 15848,
  "ĠArchie": 91706,
  "elter": 18354,
  "Ġmentions": 34945,
  "_od": 52897,
  "Ġsabah": 120897,
  ".RestController": 53452,
  "'ÑıÑĤ": 119118,
  "ĠAutodesk": 91335,
  "_ARG": 14229,
  "ĠUNIT": 39302,
  "ĠÎµÏĢÎ¹ÎºÎ±": 136058,
  "ĠÑģÐ»Ð¸Ð·": 117946,
  "à¥ĩ": 35470,
  "District": 48940,
  "}}\">{{$": 91511,
  "Ġãĥī": 113102,
  ".getDeclared": 81365,
  "HERE": 4678,
  "ĠÎ±Î½Î¿Î¯": 131610,
  "eterminate": 65324,
  "ĠChes": 74754,
  "ĽĪ": 109147,
  "ĠConst": 25538,
  "}}>": 84797,
  "Ġà¸«à¸¥": 108804,
  "kick": 56893,
  "Ali": 18129,
  "ìĹħ": 101096,
  "Ġoccupied": 25366,
  "ifers": 99913,
  "ĠÎºÏģÎ±ÏĦÏİÎ½": 131023,
  "Ð»ÑıÑĶ": 114427,
  "Ġunderground": 26326,
  "Î¶Î±Î½": 129002,
  "Ġprompting": 50745,
  "ĠposlednÃŃch": 126338,
  "Ġcil": 62444,
  "Began": 92679,
  "]))čĊ": 49998,
  "ĠÎ´ÏįÎ½Î±Î½ÏĦÎ±Î¹": 142336,
  "ucumber": 42012,
  "Ġslowly": 14297,
  "ĠSigma": 50637,
  "ĠRiverside": 63941,
  "?),": 70372,
  "_OCCURRED": 36846,
  "lay": 6789,
  "ĠÑĢÐ°ÑģÑģÐºÐ°Ð·": 115225,
  "***ĊĊ": 46906,
  "ĠÎ¼Î½Î·Î¼ÎµÎ¯Î¿": 143961,
  "ĠÐ´ÑĸÑĤÐµÐ¹": 110914,
  "ĠWend": 42368,
  "_pressed": 47278,
  "Ġrecruited": 45425,
  "_CP": 47076,
  "ĠMH": 46660,
  "(size": 6999,
  "Ġì¤": 55089,
  "attice": 32891,
  "ĠSpreadsheet": 99601,
  "ĠQStringList": 43962,
  "Ġindicators": 34824,
  "ĠÎīÏĦÎ±Î½": 132063,
  "_bs": 69650,
  "ĠĠĠĠĠĠĠĠĠĠĠĠĠĠĠĠĠĠĠĠĠĠĠĠĠĠĠĠĠĠĠĠĠĠĠĠĠĠĠĠĠĠĠĠĠĠĠĠĠĠĠĠĠĠĠĠĠĠĠĠĠĠĠĠĠĠĠĠĠĠĠĠĠ": 47245,
  "Ġmoistur": 54902,
  "Ġstains": 63563,
  "Ġopendir": 96242,
  ".Lock": 32503,
  "ĠUrg": 86586,
  "rong": 14684,
  ".DataGridViewTextBoxColumn": 24106,
  "ÂłÂłÂł": 46493,
  "à¥ģà¤Ł": 110016,
  "'].'</": 43436,
  "Ġmotivated": 27762,
  "Ġmb": 10221,
  "Ġpj": 73713,
  "âĤ¬": 15406,
  "ireccion": 32605,
  "\\čĊ": 39278,
  "Ġgarbage": 26964,
  "ĠÎ¬Î»Î»Î¿Ïħ": 132437,
  "vect": 76108,
  "ĠÎºÎµÎ¯Î¼ÎµÎ½Î±": 134017,
  "ÏĮÎ´Î¿ÏħÏĤ": 130579,
  "ĠÎļÏħ": 113203,
  "åĮ¹": 116298,
  "vore": 91602,
  "fluid": 67125,
  "xfc": 41528,
  "Ġvanity": 52671,
  "åľ°æĸ¹": 106848,
  "Ġcardinal": 56980,
  "ĠEvangel": 55806,
  "ĠQDom": 99623,
  "Î»Î¹Î±ÎºÏĮ": 143888,
  "Ġacknowled": 16201,
  "']]]Ċ": 66915,
  "ACK": 4122,
  "ĠLogistics": 71422,
  "}else": 7981,
  "ĠÐļÐ¾": 123063,
  "ĠÎ±ÏĢÎ±Î³Î¿ÏģÎµÏħ": 141692,
  "Ġinsanity": 73153,
  "ĠÎ²Î±ÏĥÎ¹ÎºÏİÎ½": 137638,
  "ĠÐ¼Ð¾Ð³ÑĥÑĤ": 103587,
  "ĠonCancel": 66225,
  "ĠBonnie": 74295,
  "åī©": 122679,
  "ĠOwens": 64457,
  "(pred": 34089,
  "ĠåĶ": 117580,
  "assing": 73932,
  "-testid": 90352,
  "åŃ£": 105343,
  "åŁĭ": 123653,
  "green": 13553,
  "ĠDaily": 13690,
  "mensaje": 47445,
  "ĠVenue": 69460,
  "ĠÏĢÎµÎ¸Î¬Î½ÎµÎ¹": 143845,
  "ÎĻÎĶ": 119307,
  "Ġoffices": 19672,
  "Ġporrf": 89917,
  "Ġ$('<": 38184,
  "Registr": 87680,
  "(Size": 82879,
  ".assertTrue": 15659,
  "distance": 19909,
  "ĠÏĢÎ±ÏģÎ±Î²Î¹Î¬": 137626,
  "Ġoral": 21308,
  "=\"{": 29110,
  "Ġokhttp": 49132,
  "ĠtrÆ°á»Ŀng": 101317,
  "arta": 26017,
  "ÎŃÏģÎ³ÎµÎ¹Î±": 128074,
  "ÑĮ": 4929,
  "Ġconjunction": 32546,
  "cak": 100751,
  "<Link": 88595,
  "Ġfringe": 55907,
  "-effects": 75888,
  "contents": 18075,
  "è¼ķ": 125063,
  "ĠAlternative": 42209,
  "FETCH": 30917,
  "ĠAc": 6515,
  "'>čĊ": 51017,
  "ĠEmail": 8463,
  "ĠÏĥÎ±ÏĨÏİÏĤ": 134974,
  "Ġcondol": 70560,
  "ĠNghá»ĭ": 112236,
  "ĠÎ¾ÎŃ": 129285,
  "ĠÎŃÎ¶Î·": 137989,
  "Bron": 42059,
  "Ġwherein": 42418,
  "è±": 44510,
  "ĠØ¨ÙħØ§": 120762,
  "Ġquantitative": 47616,
  "oled": 42831,
  "Ġà¹Ħà¸Ĺà¸¢": 124554,
  "Ġfunny": 15526,
  "428": 19140,
  "iasi": 98654,
  "OKIE": 24504,
  "align": 6750,
  "ĠCi": 32744,
  "Ġcontributing": 29820,
  "bast": 29111,
  "ĠØ§ÙĩÙĦ": 111637,
  "Aw": 23422,
  "åľ°è¯´": 127317,
  "ëªħ": 80732,
  "Ġtoplumsal": 125143,
  "Ð¸ÑĨ": 107104,
  "timeout": 14482,
  "ĠÏĦÎŃÏĦÎ¿Î¹Î¿": 130791,
  "(pic": 82165,
  "advert": 41340,
  "()._": 96171,
  "èº«ä¸Ĭ": 122374,
  "ĠÎĶÏħÏĦÎ¹ÎºÎ®": 135590,
  ".Since": 94504,
  "Ġpitched": 50098,
  "ĠAllied": 61855,
  "ĠFVector": 71384,
  "._": 1462,
  "WATCH": 65592,
  "ĠÐ²Ð»Ð°": 103038,
  "Ġstressing": 94791,
  "ĠCompass": 60680,
  "_MARK": 38016,
  "Ø³ÛĮÙĪÙĨ": 124150,
  "_profit": 73142,
  "hound": 76196,
  "Ġbers": 59654,
  ".IsEmpty": 55823,
  "Ġexpansion": 14800,
  "ĠFlorence": 48606,
  "ĠNodo": 95229,
  "ĠÎ´Î¹Î´Î±ÏĥÎºÎ±Î»Î¯Î±": 133351,
  "Ġæ³¨": 63679,
  "à¸Ĭ": 49220,
  "iero": 44688,
  "ĠPAR": 27173,
  "æł¡": 101467,
  "paired": 77267,
  "Ú©Ø§Ø±ÛĮ": 115113,
  "/ÏĦÎ·ÏĤ": 143264,
  "ĠÎºÏħÎºÎ»Ïİ": 137222,
  "Ġdye": 54631,
  "Ġprefab": 76414,
  "(ent": 55793,
  "ĠÐ²ÑĸÐ´Ð¼Ð¾Ð²": 120448,
  "Ġdato": 47392,
  "Ġvolunte": 13681,
  "ĠngÃ´i": 114276,
  "-network": 57832,
  "Verifier": 83494,
  "ĠÙĤØ¨": 107681,
  "èµĦæºĲ": 86429,
  "ref": 1116,
  "297": 18163,
  "è¡ĵ": 103991,
  "ziaÅĤ": 70217,
  "Ġmagnitude": 26703,
  "-runner": 84156,
  "Ġfunding": 11006,
  "ĠÎ±Î½ÏĦÎ¹Î¼ÎµÏĦÏīÏĢÎ¹ÏĥÏĦÎ¿ÏįÎ½": 143329,
  "minster": 41478,
  "_NAME": 4813,
  "ÌĪ": 127104,
  "Theory": 64199,
  "California": 46510,
  "Ġiv": 17967,
  "clave": 41633,
  "17": 1114,
  "ĠìĽĢì§ģ": 126256,
  "Ġtháº¥p": 110099,
  "_PE": 46884,
  "Ġgetline": 56298,
  "Ġgenerous": 28771,
  "Ġmsgs": 42370,
  "bet": 29651,
  "ĠÎµÏģÎ³": 111779,
  "Ġrepresentative": 18740,
  "[/": 25130,
  "à½": 63516,
  "ĠÐ¿Ð¾Ð¼": 76401,
  "Ġbent": 30280,
  "ĠÎµÏĢÎµÎ¾ÎµÏģÎ³Î±ÏĥÎ¯Î±": 131212,
  "coon": 73335,
  "ä¼ļ": 38093,
  "iams": 12663,
  "Â¨Ø·": 122566,
  "Ġnackte": 63102,
  "oct": 42792,
  "Ġredesign": 56719,
  "SEE": 49840,
  "ç¦ģæŃ¢": 124260,
  "-framework": 74497,
  "ĠÎĹÎ½ÏīÎ¼ÎŃÎ½Î¿Ïħ": 143385,
  "ĠØ¯Ø§Ø±Ø§ÛĮ": 108769,
  "ĠUnder": 9636,
  "Ġvaccinations": 91971,
  "à¹Ī": 19138,
  "Ä±lÄ±yor": 111853,
  "('/')[": 95873,
  "Ġpetits": 86696,
  "Storm": 35391,
  "Ġíļ¨ê³¼": 122035,
  "_CONTROL": 24607,
  "keep": 13397,
  "Ġæķ": 44714,
  "_capacity": 36703,
  "ĠAssign": 32739,
  "ĠCanc": 81423,
  "ĠERP": 66279,
  "Ġnineteenth": 66089,
  "_ACK": 51790,
  "ĠÐºÐ°Ð½": 106568,
  "ĠÃ¼st": 103838,
  "ĠloadData": 63532,
  "Ġzs": 69612,
  "TEGER": 14514,
  "Social": 27414,
  "ĠItemStack": 39215,
  "Ġ\"-\"": 27621,
  "ĠÎłÏģÎ¿": 106544,
  "ÐµÐ½Ð½Ñı": 100359,
  "Ġdocumentation": 9904,
  "Ø§ÙĦØ©": 107785,
  "åĬłåħ¥": 118065,
  "_money": 35165,
  "ĠÎºÎ±ÏĦÏĥ": 137130,
  "ĠIGN": 50939,
  "ĠÎľÎ·ÏĦÏģÏİÎ¿": 141396,
  "/tinyos": 85469,
  "ĠÐļÐ¾Ð³Ð´Ð°": 115336,
  ".font": 14317,
  "ernetes": 30923,
  "à¸ģà¸²à¸£à¸ª": 116596,
  ",R": 24412,
  "ĠÎµÎ¾ÏīÏĦÎµÏģÎ¹ÎºÎ®ÏĤ": 141737,
  "ĠKuwait": 57111,
  "à¸´à¸ķ": 101267,
  "Los": 30696,
  "Ð°ÑĤÐ°ÑĢ": 116277,
  "ĠÑĢÐ¾Ð·ÑĢÐ°Ñħ": 120973,
  "ulfilled": 86093,
  "Oops": 56372,
  "ĠÐ±Ð»Ð¸Ð¶": 124966,
  "oulos": 55047,
  "aida": 36544,
  "ÏĩÏİÏģÎ¹": 142782,
  "Ġquanto": 51212,
  "Ð¶ÐµÐ½": 104571,
  "Ġcinematic": 65765,
  "tuple": 25609,
  ".return": 22175,
  "ĠÏĦÎµÏĥÏĦ": 132365,
  "Ġafar": 99378,
  "IEEE": 77805,
  ".ObjectModel": 62125,
  "Ġprimera": 44769,
  ".Immutable": 87342,
  "ĠDOM": 18542,
  "Ġunsure": 44003,
  ".sync": 31812,
  "ĠJWT": 48667,
  "mix": 36171,
  "ĠÙĨÙħØ§ÛĮ": 107143,
  "Ġenchant": 48025,
  "\\\">": 11657,
  "à¸²à¸ģà¸£": 112060,
  "(I": 9149,
  "ĠVoj": 127473,
  "Î¿Î»Î¿": 141507,
  "ĠÎłÎ¹ÏĥÏĦÎµÏį": 136088,
  "clk": 33683,
  "ĠÎĶÎ¹ÏĮÏĦÎ¹": 141323,
  "Î³Îº": 102167,
  "ĠSiemens": 91324,
  "Ġuphe": 96710,
  "Ġexposing": 47066,
  "ĠnewX": 89903,
  "_even": 69447,
  "ste": 5455,
  "æĪ¦": 102669,
  "(void": 4431,
  "ĠtaÅŁÄ±n": 119015,
  ".Blocks": 98328,
  "Ġ-*-": 12286,
  "'Brien": 62561,
  "Ġorgasm": 38765,
  "$m": 54616,
  "qry": 62355,
  "ĠÎ¿Î»Î¿ÎºÎ»Î·ÏģÏİ": 132606,
  "ĠThemeData": 96650,
  "pageNumber": 85827,
  "ĠArtem": 79366,
  ".onStart": 80434,
  ":relative": 85666,
  "ĠÏħÏĢÎ¿ÏĥÏĦÎ·ÏģÎ¹ÎºÏĦÎŃÏĤ": 143355,
  "Method": 3607,
  "Ġstepped": 25319,
  "Foto": 60343,
  "Ø§ØŃØª": 110057,
  "orado": 97855,
  "-ce": 54312,
  "ĠÎ´Î¹ÏĮ": 139826,
  "ĠÏĥÏħÎ½ÎŃÏĩÎ¹ÏĥÎ·": 137186,
  "Ġanchor": 17543,
  "ĠÎ±Î¼Î±": 139375,
  "ĠÎ¤Î¿Ïħ": 126389,
  "Ġflawed": 48008,
  "===========": 36499,
  "_)čĊ": 77743,
  "Ġble": 12704,
  "æ¬": 25340,
  ".signup": 83076,
  "Ġmedial": 97348,
  "Î¬ÎºÎ·ÏĤ": 129321,
  "Î²Î±Ïĥ": 129936,
  "ascript": 5948,
  "ThreadId": 92170,
  "onenumber": 74366,
  "ĠMLS": 29998,
  "analyze": 94321,
  "ĠInvestig": 33180,
  "ê´ĳê³ł": 121174,
  "_license": 64939,
  ".Res": 8542,
  "topic": 16816,
  "(JSON": 19676,
  "Compra": 94525,
  "ÙĨØ¯Ø§ÙĨ": 107157,
  "exp": 4683,
  "ãģĿãģĹãģ¦": 80539,
  "adic": 37314,
  "Ġemitter": 48363,
  "ĉtexture": 84407,
  "Chart": 14828,
  "ĠÎ¼Î¿Î½ÏĦÎŃÎ»Î¿": 130142,
  "ternÃŃ": 110338,
  "?t": 69754,
  "_TER": 66544,
  "ÏĥÏĥÎ±ÏĤ": 131012,
  "anky": 92916,
  "TypeDef": 46202,
  "Ġmeddling": 81313,
  "Sport": 59837,
  "ĠlÃ©ka": 109465,
  ".Sql": 23867,
  "ĠKilled": 44896,
  "à¹ĮĊĊ": 122886,
  "816": 23713,
  "_FieldOffsetTable": 89496,
  "=====Ċ": 65997,
  "Ġ:-)": 92941,
  "Dest": 35930,
  "Ġprodutos": 62962,
  "Ġç¤º": 80804,
  "(ws": 58886,
  "Î»Î¿ÏįÎ½ÏĦÎ±Î¹": 129979,
  "ifth": 58710,
  "entic": 4351,
  "ĠÐ¸Ð´": 120694,
  "irk": 14468,
  "Ġthá»": 100382,
  "Ġdelegates": 36159,
  "ãĥĺ": 108768,
  "ĠProvid": 21156,
  "encryption": 81037,
  "Notice": 35293,
  "UFFER": 11491,
  "ĠÎ¿Î¼Î¯Î»Î¿Ïħ": 134283,
  "ĠSaga": 62812,
  "composer": 75994,
  "ÑĤÑĢÐ¾Ð½": 110286,
  "ĠÎ²ÎµÎ»ÏĦÎ¯ÏīÏĥÎ·": 130572,
  "ë¡ľê·¸ëŀ¨": 110357,
  "Ġmoto": 74056,
  "True": 2575,
  "ĠÎ³ÎµÎ½Î¹ÎºÎ¿Ïį": 139084,
  "åıĭ": 98915,
  "á»¥p": 116021,
  "_fraction": 60123,
  "ĉFROM": 45868,
  "ĠJab": 54082,
  "°": 108,
  "ĠCáº§n": 126086,
  "Ġmedida": 72628,
  "ãĥĥãĤ·ãĥ¥": 116219,
  "ĠÏĢÎ±Ïĩ": 136300,
  "Ġsuccessful": 6992,
  ";\";Ċ": 40778,
  ".square": 39918,
  "ĠSolidColorBrush": 92351,
  "();++": 85070,
  "apollo": 54710,
  "ason": 1525,
  "ĠROS": 38517,
  "Ġkijken": 79057,
  "733": 24865,
  "/st": 14607,
  "ĠØ±ÙĪØŃ": 112676,
  "ĠÏĪÏħÏĩÎ®ÏĤ": 143099,
  "acen": 91587,
  "ĉJLabel": 68277,
  "Ġshepherd": 91478,
  "ORY": 7668,
  "_VOL": 71515,
  "ÏģÎºÎµ": 117747,
  "')))Ċ": 46930,
  "ĠÎ§Î±ÏģÎ±ÎºÏĦÎ·": 136913,
  "ĠÎ±ÏĢÎ¿ÏģÏģÎ®ÏĦÎ¿Ïħ": 141869,
  "Ġkami": 63769,
  "[e": 23876,
  "ÏįÎ»Î¹Î¿": 143705,
  "Ġemails": 14633,
  "cz": 14088,
  "rocessing": 49787,
  "UIAlertAction": 57539,
  "(curl": 88841,
  "ĠcolumnHeader": 96724,
  "didn": 97849,
  "ìĤ¬ëŀĳ": 125989,
  "ĠÎ¼Î¯Ïĥ": 135382,
  "umbai": 30955,
  "Ġpersonne": 54613,
  "_REPORT": 41513,
  "NSNotificationCenter": 57085,
  "ãĢĢï½": 125149,
  "Ġcloud": 9624,
  ">p": 64727,
  "ĠÐ¿ÑĢ": 12561,
  "drug": 73821,
  "ĠdÄĽtÃŃ": 115907,
  "ĠÎ£Î¿Î²Î¹Îµ": 140488,
  "-group": 4449,
  "typeid": 89442,
  "Ġdevastation": 83015,
  "\\b": 44556,
  "(ir": 77691,
  "ĠhlavnÃŃ": 113095,
  "à¸´à¸ģ": 101617,
  "ÏİÏĥÎ±Î¼Îµ": 143402,
  "Ġenamel": 92848,
  "getApplication": 92969,
  "Ø´ÙĪØ¯": 113283,
  "ĠMake": 7557,
  "ĠUIManager": 93865,
  "ĠSolver": 69395,
  "ĠloadImage": 70689,
  "cancelled": 96382,
  "ovÃ½ch": 102285,
  "amd": 69013,
  "äºĭæķħ": 123429,
  "iconductor": 52592,
  "ãĢĤĊĊĊĊĊĊ": 75787,
  "Ġrumpe": 99680,
  "ĠÎķÏĦÎ±Î¹ÏģÎµÎ¯Î±ÏĤ": 137128,
  "Î´ÎµÎ¹Îº": 128532,
  "ĉĉĉĠĠĠĠĠĠĠ": 33817,
  "FileType": 72973,
  "QN": 88154,
  "ĠÐ¸Ð½ÑĤÐµÑĢ": 98051,
  "ovÃ¡ny": 112511,
  "Fight": 66754,
  "ĠDale": 37828,
  "ĠAngeles": 12167,
  "))){Ċ": 52463,
  "hÃ¡": 119009,
  "ĠÎ¿ÏģÎ³Î¬Î½ÏīÏĥÎ·": 131372,
  "Ġ_{}": 112069,
  "aklÄ±": 117764,
  "tiÄŁini": 111998,
  "Ġ^{}": 118707,
  "Î¶ÏħÎ³": 138062,
  "Ġwidow": 57896,
  "Ġdeveloper": 16131,
  "à¥ĩà¤¶à¤ķ": 118814,
  "âĸĳ": 85157,
  "ĠÎ±ÏħÏĦÎ¿Î½": 136902,
  ".Abstract": 38440,
  "-mar": 71098,
  ".actual": 69220,
  "Ġspecies": 9606,
  "iquer": 72684,
  "âĢ°": 85725,
  "ĠÎ´Î¿ÏħÎ»ÎµÏį": 133543,
  "325": 15257,
  ".FindElement": 69064,
  "ĠÅ¾ivota": 114054,
  "ĠXXX": 20572,
  "bst": 25604,
  "itled": 15621,
  "ĠìķĦì¹¨": 126474,
  "áº¿p": 104730,
  "ent": 306,
  "_Adjust": 42804,
  "ĠÐ¿Ð¾Ð´": 40842,
  "ĠÐ°ÐºÑĤ": 112941,
  "Sample": 18031,
  "Ġdriven": 16625,
  ".every": 74579,
  "ĠHispanic": 41985,
  "ĠÎ´Î¹Î±Î³ÏīÎ½": 130408,
  "elope": 82665,
  "ĠÏĥÏħÎ½ÎŃÎ½ÏĦÎµÏħÎ¾Î®": 136789,
  "Berry": 51302,
  "ĠÎ¦Î¹": 132496,
  "ĠÎ¸ÎŃÎ»Î¿ÏħÎ¼Îµ": 132190,
  "ĠØªØ£": 103918,
  "ÏĢÎ¹Ïĥ": 125726,
  "azine": 10119,
  "ĠÑĥÑģÑĤÐ°Ð½Ð¾Ð²": 103699,
  "Ġplugged": 59329,
  "ĠsqlSession": 91165,
  "ĠqueryInterface": 96015,
  "Î¼ÎµÏĦÎ¬": 130505,
  "æĳ": 99046,
  ":null": 54198,
  "ĠÏĢÎ±ÏģÎ¿ÏħÏĥÎ¯Î±ÏĥÎ±Î½": 139259,
  "/pol": 93850,
  "ãĥ»ãĥ»ãĥ»ĊĊ": 86421,
  "already": 46584,
  "ĠÏĥÏħÎ½Î±Î¹ÏĥÎ¸Î®Î¼Î±ÏĦÎ±": 133779,
  ",d": 12260,
  "ADVERTISEMENT": 45466,
  "Ġexpenditure": 45426,
  "Principal": 32871,
  "Code": 2123,
  "ĠÎ±Î½ÏĦÎ¯Î¸ÎµÏĦÎ¿": 138036,
  "_pen": 39214,
  ".Css": 90638,
  "Ġfemmes": 31656,
  "ĠFileStream": 51871,
  "-highlight": 73902,
  "ĠÎ¤Î±ÏĬ": 140437,
  "ĠÎ±Î¹Ïİ": 130371,
  "Ġchuáº©n": 104628,
  "copy": 8728,
  "Ġwrongful": 93732,
  "ĠMidi": 84176,
  "Ø¬Ø§Øª": 111009,
  "ĠTForm": 94717,
  "Ġpohyb": 114441,
  "Ġdocumentaries": 88466,
  "ĠÐ¿ÐµÑĢÐ¸": 105737,
  "ĉscale": 71880,
  "ĠRadi": 35969,
  "ÏĦÎ¿ÏĢÎ¿": 140568,
  "Ġvue": 48234,
  "\\\"]": 76204,
  "Chair": 85295,
  "ÏģÎ¹Î¿ÏĤ": 109927,
  "ĠTHREAD": 57615,
  "ecom": 66274,
  "202": 2366,
  "Ġà¤Ńà¤µ": 117317,
  "amen": 25807,
  "muÅŁtur": 113050,
  "AnimationFrame": 52795,
  "Iran": 62819,
  "ovnÄĽ": 127215,
  "-times": 45548,
  "Gap": 13164,
  "_Core": 43090,
  "ĠLJ": 97788,
  "Ġpython": 10344,
  "152": 9756,
  "ĠìŀĪëįĺ": 120059,
  "ĠLibertarian": 85823,
  "ÑĸÑĹÐ²": 125646,
  "printStats": 83361,
  "<Void": 44367,
  ".repository": 15311,
  "ĠÎ¾ÎŃÏģÎµÎ¹ÏĤ": 137233,
  "Small": 26375,
  "Chain": 19368,
  "IFS": 82777,
  "ãĢĢãĢĢãĢĢãĢĢĠãĢĢ": 112856,
  "ĠÐ¼Ð°Ð»Ð¾": 112974,
  "ByName": 17325,
  "Ġsofa": 32169,
  "Ġkhá»ıe": 109591,
  "Ġevaluation": 16865,
  "esi": 34183,
  "ĠInfragistics": 56002,
  "ĠØ§ÙĦØŃÙĦ": 119181,
  "Ġklar": 73834,
  "(argv": 15689,
  "(categories": 91021,
  "ĠÎ£ÏħÎ½Î´ÎŃ": 139158,
  "Ġà¤¸à¤®à¤°": 115367,
  "è®°": 41914,
  "ĠumoÅ¾": 110906,
  "ĠAkron": 95893,
  "ÎłÎ¹ÏĥÏĦÎµÏį": 139721,
  "Ġä¸ĩåĨĨ": 118940,
  "Ġremodel": 47086,
  "dens": 53321,
  "ĠÙ¾ÙĦ": 110883,
  "ĠKhoa": 123861,
  "Ġbunu": 107388,
  "Ġchick": 31863,
  "ĠÐ¼Ð°ÑĤ": 96573,
  "ÏĦÎ±Î¾Îµ": 137043,
  "Ø«Ø±": 103094,
  "Ġgraphs": 40099,
  "_minus": 39557,
  "Ġdosage": 47040,
  "nou": 100738,
  "ĠÎºÏħÎºÎ»Î¿ÏĨÎ¿ÏģÎ¿ÏįÎ½": 139562,
  "enan": 62941,
  "çİ¯": 87412,
  ".Center": 28352,
  "æī«": 122737,
  "Ġrestless": 89358,
  "Ġdens": 39950,
  "ĠDaemon": 93336,
  "ĠSTM": 48273,
  "ĠPAGE": 26095,
  "ĠSouls": 58770,
  "Ġì§ĢëĤĺ": 118652,
  "ĠRoger": 29607,
  "ĠÃ¶zg": 112072,
  "_inf": 27143,
  "Ð¸ÑĤÐµÐ»ÑĮÐ½ÑĭÐ¼": 125922,
  "ĠsearchTerm": 90126,
  "aÅŁtÄ±r": 106791,
  "-stat": 73454,
  "returnValue": 54115,
  "lers": 9438,
  "ĠÏĩÎ±Î¼Î·Î»Î¿Ïį": 142377,
  "ĠReddit": 27728,
  "hip": 2200,
  "CLUD": 10971,
  "ĠÏĥÎ·Î¼ÎµÎ¹ÏİÎ½ÎµÎ¹": 132231,
  "-de": 6953,
  "à¤Ĥà¤¡à¤²": 121260,
  "ĠlParam": 52934,
  "ĠÏĥÎ±": 128731,
  "Ġdeltas": 91687,
  "Ġcellular": 35693,
  "Ġlxml": 99823,
  "Ã¡ci": 105072,
  "Pen": 29305,
  "&ZeroWidthSpace": 123482,
  "drs": 94346,
  ".ComboBox": 26369,
  "dag": 51741,
  "ĠÎ¹ÎºÎ±Î½": 129028,
  "_uri": 15943,
  "ĠShim": 54585,
  "phon": 52801,
  "ett": 7211,
  "ĠÎ¿ÏģÎ¹Î¶ÏĮÎ½ÏĦÎ¹Î±": 143425,
  "Ġipairs": 57344,
  "OCR": 94595,
  "ĠÎľÎ·ÏĦÏĥÎ¿ÏĦÎ¬": 129479,
  "Ø§Ø·Ø¹Ø©": 123509,
  "ĠÎµÎ¹ÏĥÎ¹ÏĦÎ·ÏģÎ¯ÏīÎ½": 141942,
  ".InputStream": 31004,
  "Î¡Îĵ": 115380,
  "%);Ċ": 95152,
  "ĠBehind": 43474,
  "Shortcut": 64174,
  "-density": 89131,
  "tÃ©": 123708,
  "(secret": 76962,
  "Ġcontinuous": 19815,
  "Ġvert": 5309,
  "(program": 37927,
  "ĠJamie": 36857,
  "Ġbeet": 49112,
  "ĠÎ½ÎµÎºÏģÏİÎ½": 143976,
  "interp": 64821,
  "()==\"": 86468,
  "çĶµè¯Ŀ": 88905,
  "Temporary": 60462,
  ">{\"": 89963,
  "ÏĥÎ¹Î¿Ïħ": 135842,
  ".YesNo": 77994,
  "Ġ''.": 43963,
  "ĠÎ¼ÎµÎ³Î¬Î»Î¿ÏħÏĤ": 136753,
  "PTR": 48705,
  "ĠReserved": 15516,
  "Ġeditions": 47634,
  "ĠÑĸÐ½ÑĪÐ¸Ð¼Ð¸": 123957,
  "ĠKitty": 67281,
  "ĠÎ¹Ïĥ": 128855,
  "Ġcaval": 60390,
  "ĠnÄĽ": 100640,
  "Ã¡tky": 108653,
  "ĠHait": 43502,
  "à¤¾à¤£": 103660,
  "ĠìĭľìĬ¤íħľ": 117022,
  "Ġprotected": 2682,
  "\"Not": 82255,
  "recursive": 50612,
  "ĠÎºÎµÏģÎ´Î¿ÏĥÎºÎ¿ÏĢ": 141208,
  "ADDRESS": 62105,
  "Ġpopping": 50949,
  "-example": 44530,
  "Registers": 93178,
  "966": 25285,
  "ĠÎµÏĢÎ±Î³Î³ÎŃÎ»": 137264,
  "ĠÎºÎ»Î¯Î¼Î±": 129314,
  "âĢĻex": 94345,
  "ĠÎ¯Î´ÏģÏħÏĥÎ·": 134845,
  "æĮĤ": 116796,
  "ÏĥÏħ": 125978,
  "Ġtrackers": 92082,
  "Ġspells": 26701,
  "ÙĪÙĤØ¹": 108923,
  "throw": 7265,
  "Ġcamar": 97686,
  "jÃł": 44424,
  "ĠÃĸl": 121853,
  "Framebuffer": 59638,
  "ĠSite": 13207,
  "(config": 8928,
  "ĠKostenlos": 82542,
  ".','": 72082,
  "ĉmov": 54884,
  "Ġcurses": 68247,
  "ĠThousand": 75453,
  "ĠElle": 46408,
  "ĠÏĢÏģÎ¿ÏĦÎ¿Ïį": 137432,
  "Ġethanol": 62772,
  "serialize": 25140,
  "Ġappropri": 7333,
  "/(": 12148,
  "ĠInnovative": 98669,
  "prep": 72874,
  "outedEventArgs": 30172,
  "Ġchanged": 5614,
  "nd": 303,
  "ĠPrints": 50385,
  "ĠsaÃ§": 112254,
  "oton": 26934,
  "Ġwebcam": 27041,
  "Ġå°Ĩ": 121626,
  "ĠÃ¼cret": 107620,
  "ĠÏĢÏģÎ¿Î·Î³Î¿ÏįÎ¼ÎµÎ½Î·ÏĤ": 138024,
  "Maps": 37662,
  "ĉvolatile": 32219,
  "Ġaffidavit": 61035,
  "ĠÐ¾Ð´Ð½Ð¾Ð²": 125206,
  "Ġpagan": 84902,
  "phin": 55853,
  "æķ°åŃĹ": 83687,
  "ì´": 108220,
  "webpack": 11634,
  "ĠÎ·Î³ÎµÏĥÎ¯Î±ÏĤ": 138377,
  "vironment": 3182,
  "Ġdrawing": 13633,
  "ĠÑģÐ¿ÐµÑĨÐ¸Ð°Ð»Ð¸ÑģÑĤ": 117510,
  "Ġcraving": 64804,
  "(eval": 55563,
  "ĠEin": 18560,
  "olor": 795,
  "ĠÄĳÃło": 109770,
  "Ġdia": 18205,
  "Metal": 66761,
  "ĠCampo": 59253,
  "ISK": 68799,
  "hd": 16373,
  "ĠKenneth": 49498,
  "OME": 11662,
  "Ġduvar": 120800,
  "ĠÎ¦Î±Ïģ": 135229,
  "Ġpractition": 31271,
  "Ġsubstitute": 28779,
  "ĠtvoÅĻ": 127502,
  "Ġglyph": 33250,
  "ĠÏĦÏģÎ¿ÏĨÎ¯Î¼ÏīÎ½": 132474,
  "ĠÎ³Î®": 131667,
  "ĠDra": 74202,
  "ĠSequence": 29971,
  "ĠWindows": 5632,
  "ĠTháº¿": 115470,
  "epend": 13059,
  "à¹ģà¸Ł": 116863,
  "Î³Î¿ÏįÏĥÏĦÎ¿Ïħ": 131113,
  "Ġive": 99677,
  "OLUMNS": 49870,
  "ĠÎ±ÏĢÎ¿Î¼Î¿Î½": 135633,
  "ÏĦÏģÎ·ÏĤ": 131169,
  "ãģ²ãģ¨": 115303,
  "Î¼Î®ÏĤ": 128451,
  "WITHOUT": 69535,
  "_CONTENT": 26641,
  "+\\": 42815,
  "qid": 89687,
  "mall": 30632,
  "_PROPERTIES": 65719,
  "ĠLaure": 33767,
  "$path": 74049,
  "Ġë¦¬ê·¸": 124313,
  "æıĴ": 113130,
  "Ġpthread": 20532,
  "authorized": 19626,
  "DEC": 31826,
  "ÎŃÎ¼Î²ÏģÎ·": 143188,
  "ĠGallup": 80901,
  "ONSE": 26289,
  "FIELDS": 73245,
  "Ġanx": 74884,
  "ÏĬÎºÎ®ÏĤ": 128769,
  "ĠÎ¥ÏĢÎ¿Î¸ÎŃÏĥÎµÏīÎ½": 139426,
  "agination": 10569,
  "(Math": 14764,
  "Ð¼ÐµÑĤ": 101501,
  "âĦ¢": 16500,
  "November": 34827,
  "ĠLunar": 79195,
  "Ġé»ĺè®¤": 81646,
  "-debug": 72151,
  "Vault": 80277,
  "ĠNYT": 99812,
  "ĠJavascript": 32952,
  "ĠBrigham": 96285,
  "/do": 83738,
  "Kernel": 27440,
  "IGHL": 85759,
  "ĠÎĳÏģÎ¹ÏĥÏĦÎ¿ÏĦÎŃ": 137554,
  "_pick": 59268,
  "ĠÐ¼Ð°Ð»ÑĮ": 127026,
  "ĠÏĢÎµÏģÎ¹ÎµÎ»Î¬": 142570,
  "ĠtextSize": 78500,
  "(dist": 37268,
  "ĠÙĨÙĤØ´": 106520,
  "Ġinsign": 54127,
  "_pll": 99912,
  "ucking": 47270,
  "Î½Î¬ÏĥÎ¹Î¿": 139899,
  "_big": 37486,
  "âĸı": 109724,
  "ÙĨØ¯ÙĬØ©": 127741,
  ".config": 5539,
  "Ġê·¸ëŀĺ": 110610,
  "(properties": 47004,
  "rego": 68817,
  "Ġexperts": 11909,
  "åĢį": 98406,
  "execute": 10469,
  "_bio": 90741,
  "ĠoznÃ¡m": 118927,
  "ĠChad": 43130,
  "é¢ľ": 124510,
  "Ġintricate": 57216,
  "Canon": 95433,
  "ĠÏĢÏģÎ¿ÏĥÎ´Î¿Îº": 134842,
  "Ġlud": 45064,
  "ĠÏħÏĨÎ¹ÏĥÏĦÎ¬": 133160,
  "Ġsympathetic": 53464,
  "Ġorganising": 88171,
  "ARM": 18394,
  "Ġreligious": 10597,
  "_txn": 93399,
  "ĠÑĢÑıÐ´Ð¾Ð¼": 120204,
  "ÑĤÑĸ": 102398,
  "=log": 84404,
  "ĠÎ±ÏĢÎ¿ÏĨÎ±ÏĥÎ¯ÏĥÎµÎ¹": 135741,
  "ĠçĻ¾åº¦æµģéĩı": 115108,
  "ĠCST": 60039,
  "Ġrecon": 16456,
  "Ġhoc": 67490,
  "(with": 17411,
  "*******/ĊĊ": 54199,
  "ĠEnables": 77416,
  "Ġ?>>Ċ": 55230,
  "<G": 60827,
  "'\";čĊ": 73433,
  "ï½¤_": 115745,
  ".Payment": 71223,
  ".Serial": 13717,
  ".processor": 80858,
  "Ġmaneuvers": 96891,
  "ĠÎļÎ±Î¸": 137936,
  "Ġsometimes": 7170,
  "à¸Ļà¸²à¸¢": 112646,
  "Addon": 85412,
  "(coordinates": 98096,
  "\\Plugin": 78398,
  "ĠÎ´Î¹Î±ÎºÏħÎ²ÎŃÏģÎ½Î·ÏĥÎ·ÏĤ": 139371,
  "ĠÎŃÎ½Î½Î¿Î¹Î±": 129440,
  "Ġbring": 4546,
  "'=": 61385,
  "ĠRet": 10608,
  "OMEM": 43882,
  "ĠÎ±Î½Îµ": 130141,
  "ÏĥÏĦÎ¹ÎºÎ¿Î¯": 142930,
  "],čĊ": 18840,
  "ĠÎºÎ±Î»Î¿ÎºÎ±Î¯ÏģÎ¹": 131222,
  "¤æĸŃ": 80426,
  "COUNT": 39243,
  "ĠØ«ÙĦØ§Ø«": 117075,
  "Î¿ÏįÏĥÎµ": 131217,
  "ĠÐ²Ð¸Ð¿Ð°Ð´ÐºÑĥ": 117420,
  ".mix": 81981,
  "Ġà¸Ħà¸Ļ": 107891,
  ".LAZY": 92338,
  "çĶ¨": 11883,
  "inds": 8843,
  "ĠÃ¡p": 104752,
  "èĲ¥ä¸ļ": 127644,
  ".Some": 87933,
  "ÏĢÏĦÏīÏĥÎ·ÏĤ": 135155,
  "ĠÂµÎ±ÏĤ": 141356,
  "Ġallowance": 41458,
  "ÑĢÐ°ÑĤÐ½Ð¾": 124969,
  "Ð²Ð°Ð¼Ð¸": 127673,
  "creenshot": 32209,
  "Ġ----------------------------------------------------------------": 8633,
  "ç®¡çĲĨåĳĺ": 96557,
  "quent": 17187,
  "elay": 7040,
  "ĠDog": 14588,
  "'email": 84451,
  "ĠAllah": 28471,
  "_OPER": 28304,
  "esel": 107956,
  "ĠÎ¼ÎµÏģÎ¹ÎºÎ¿Î¯": 143632,
  "Ġtasked": 51920,
  "_tac": 31726,
  "ĠJÃ¡": 122854,
  "ĠBuilds": 68218,
  "ĠManufact": 18124,
  "...\";Ċ": 66689,
  "Ġcpt": 95567,
  "Ġbetray": 34568,
  "ĠnÄĥ": 100454,
  "Ã¡rnÃŃ": 107818,
  "/il": 98665,
  "ĠExpanded": 40337,
  "Ġhran": 112135,
  "ĠSms": 96489,
  ".args": 16769,
  "Ġbury": 56444,
  "mÄ±zÄ±": 116878,
  "CONS": 96594,
  "ØªÙĬÙĨ": 124083,
  "ĠÎºÎ±Î¸Î·Î¼ÎµÏģÎ¹Î½Î®": 133018,
  "kits": 90517,
  "_CALLBACK": 36873,
  "APE": 69380,
  "Ġ`,Ċ": 64645,
  "Ġethereum": 85622,
  "Ġroutines": 30597,
  "uania": 63611,
  ".dev": 22247,
  "ptive": 54835,
  "Ġapplies": 17208,
  "ÏĦÎ¬ÏģÎ¹Î±": 138744,
  "Ġpartnership": 15664,
  "ĠÐ½Ð°Ð¿ÑĢÐ¸": 107492,
  "ãĢĢãĥ½": 102661,
  "ĠDish": 49268,
  "ĠEllison": 82747,
  "ĠÚ©Ø±Ø¯Ùħ": 120799,
  "ÑĨÐ¸Ð¾Ð½Ð½Ð¾Ð¹": 122117,
  "ĠngÃ¢n": 108217,
  "ĠÎ£ÏĩÎŃÎ´Î¹Î¿": 138985,
  "ĠÏĢÎ¿Î»Î¹ÏĦÎµÎ¯Î±": 137949,
  "_discount": 43979,
  "ĉtype": 13459,
  "emetery": 37638,
  "á»Ļng": 102091,
  "Û²": 100453,
  "Ġappealing": 33352,
  "shield": 49052,
  "Ġdeletes": 55270,
  "dex": 92869,
  ".Many": 40734,
  "Ġ}}>": 46621,
  "Ġfunkci": 125246,
  "_fail": 22902,
  "oÄŁlu": 107349,
  ".deltaTime": 29858,
  "Ġfigura": 94815,
  "Ġperspective": 13356,
  "Ġpastoral": 90371,
  "Ġleaves": 11141,
  "Ġbeta": 13746,
  ".Bot": 83875,
  "Ã¼cÃ¼": 109765,
  "nesty": 48385,
  "ĠÐ¿ÑĢÐ¸Ð²Ð¾Ð´": 110295,
  "ĠPB": 32034,
  "ÏĦÎµÏģÎµÏį": 137510,
  "à¸¥à¸²": 111745,
  "ĠVladimir": 36011,
  ".players": 37305,
  "uestion": 8849,
  "ĠEpic": 40467,
  "Ġbarric": 78680,
  "ĠLockheed": 85236,
  "Ġkdyby": 114192,
  "ĠÙħØ¤": 106400,
  "ĠÎµÏħÏģÏīÏĢÎ±ÏĬÎºÎ¬": 138431,
  "åĲĦ": 102208,
  "342": 17590,
  "uali": 52266,
  ">:</": 78667,
  "quip": 36847,
  "ï¼Įå¦Ĥæŀľ": 114806,
  ">[": 31868,
  "Ġassigning": 61853,
  ".zone": 58908,
  "ĠÐ¾ÑģÐ¾Ð±": 101473,
  "ĠÎĪÎ»Î»Î·Î½Î±": 137118,
  "Ġconstituents": 51720,
  "_teacher": 71653,
  "-div": 33885,
  "à¸¡à¸²à¸ģà¸ģà¸§": 122136,
  "ë¹ĦìķĦ": 126751,
  "ĠÎ±ÏĢÎ¬Î½ÏĦÎ·ÏĥÎµ": 132417,
  "_prov": 90748,
  "ĠAdded": 18152,
  "?\"ĊĊĊĊ": 93479,
  "ĠSKIP": 82504,
  "_capability": 90786,
  "ĠDraws": 84532,
  "ĠØ§ÙĦÙĬ": 104329,
  "lamaz": 116766,
  "Ø²ÙĨ": 112505,
  "Ġcompetitiveness": 77651,
  "ÎłÎ±Î½": 137496,
  "ĠRef": 8718,
  "ãģ¾ãģ§": 103296,
  "ĠTravis": 41810,
  "ÎŁ": 100388,
  "Ġuncomfort": 27824,
  "ĠëĬ¥": 122298,
  "oa": 20103,
  "oreferrer": 59040,
  "ĠHEIGHT": 43000,
  "(company": 59484,
  "ĠSch": 5124,
  "ĠÎĹÏģÎ¬Îº": 138311,
  "_expression": 29168,
  "ĠÎ±Î½Î®": 128989,
  "ĠÑĸÐ½ÑĦÐ¾ÑĢÐ¼Ð°ÑĨÑĸÑĹ": 117866,
  "Ġrailways": 96247,
  "_sql": 18554,
  "outside": 68090,
  "Ġslur": 84671,
  "(),'": 60100,
  "Ġë§ģíģ¬": 113651,
  "ĉlua": 45922,
  ".Instance": 12977,
  "ĠÎ±Î½ÏĦÎ¹ÏĢÏģÎ¿ÏĥÏī": 132281,
  "Ġinflation": 25544,
  "Ġwhistleblower": 92068,
  "ĠTAR": 75674,
  "666": 10943,
  "ÙĨØ³Ø§": 123695,
  "Ġuniverse": 15861,
  "Ġprogramm": 56586,
  "Ġ(\"<": 91376,
  "ĠZig": 74861,
  "ãĥ«ãĥķ": 122981,
  "liches": 96385,
  "ãĤ»ãĥ³": 113714,
  "_shadow": 54220,
  "Ġbullet": 17889,
  "Ġvznik": 107555,
  "ĠÎ¼ÎµÏĦÎ±Î»Î»Î¬": 139666,
  "black": 11708,
  ".Lookup": 80361,
  "ĠÏĦÎ±ÏĩÏįÏĦÎ·ÏĦÎµÏĤ": 143992,
  "arie": 67545,
  ".Evaluate": 89743,
  "levard": 43343,
  "forest": 51755,
  "orders": 8076,
  "Ġpilots": 36377,
  "ĠÑģÐ¿ÑĢÐ¾Ñģ": 113864,
  "ĠÎĿÎŃÎ¿": 141155,
  ".problem": 90471,
  "ĠÏģÏīÏĥÎ¹ÎºÎ®": 138465,
  "thresh": 95482,
  "Ġìļ¸": 111535,
  "Ġnightmare": 38911,
  "Ġobjedn": 118770,
  "ĠÑĤÑĢÐµÐ½": 117222,
  "ØªØ¹": 107356,
  "ĠÎĴÎ¿Ïģ": 135443,
  "Suddenly": 98331,
  "Ġweaken": 33556,
  "Ġ][": 36740,
  "ĠFILTER": 36452,
  "(bitmap": 55478,
  "chy": 59064,
  "ampaign": 18666,
  "à¹Ģà¸¥": 100741,
  "ĠCipher": 64388,
  "Ġchristian": 52147,
  "Ġenlightened": 82315,
  "Ø¸Ù¹Ø·": 125445,
  "Ġ__________________________________": 82108,
  "mite": 53995,
  "Ġpastors": 92420,
  "pes": 20975,
  "vation": 61428,
  "ĠPIT": 94019,
  "marginTop": 67641,
  "Ġmerry": 93552,
  ":\",Ċ": 56220,
  "Ġpresidency": 32858,
  "ĠĠĠĠĠĠĠ": 286,
  "Ġãĥĩ": 110045,
  "MetaData": 38407,
  "aciÃ³n": 5840,
  ".magnitude": 83891,
  "Ġ-:-": 121734,
  "ĠCanter": 75993,
  "practice": 60621,
  "\"]/": 46158,
  "ĠSSC": 98465,
  "_study": 86681,
  "couz": 116313,
  "ĠÏĢÎ±ÏģÎŃÎ¼Î²Î±ÏĥÎ·": 132290,
  "ĠÏĥÎ®Î¼Î±Î½": 139545,
  "caled": 26294,
  "Perl": 95571,
  "ĠmÃºs": 60957,
  "ĠForces": 30500,
  "Imm": 51839,
  "ĠÐ¿Ð¾Ð»ÑĥÑĩÐµÐ½Ð¸Ñı": 125824,
  "April": 29146,
  "Ã³nica": 93063,
  "ĠWhip": 95402,
  "ĠMASK": 56194,
  "Ġdefenseman": 83156,
  "ĠÎ¸ÏģÎ·ÏĥÎºÎµÏħ": 132990,
  "undle": 4300,
  "ĠÎ±Î½Î±ÏĢÏĦÏįÎ¾Î¿ÏħÎ½": 143871,
  "AMESPACE": 58434,
  "GetValue": 24091,
  "ĠLowell": 96230,
  "udge": 20132,
  "Ġexiste": 29253,
  "ĠÏĦÏīÎ½": 101686,
  "criptors": 26789,
  "Ã§ak": 119319,
  "zek": 64123,
  "ĠÏĢÎ·": 137835,
  "Ġrats": 32510,
  "Ġà¤Ĺà¤¤": 117956,
  "Ġphilosophers": 61787,
  "ĠÙĨÛĮØ³Øª": 105182,
  "ĠKdyÅ¾": 109830,
  "ĠØ£ÙĨÙĩØ§": 125356,
  "Ġunfortunately": 26907,
  "Ġincapac": 94130,
  "avax": 11154,
  "ĠÏħÎ»Î¿": 129135,
  "å¨ĺ": 107571,
  "ContextHolder": 80904,
  "atz": 20786,
  "iá»ģu": 100449,
  "_dynamic": 47092,
  "Ġwent": 4024,
  "ĠBulls": 44789,
  "Ġinherits": 76582,
  ".slider": 60263,
  "ĠEnabled": 30753,
  "Ġbikini": 55305,
  "ĠèĹ": 117190,
  "ĠFRA": 117577,
  "ĠÎĶÎ¹ÎµÏħ": 130812,
  "Ġchloride": 82882,
  "(::": 39832,
  "reload": 40082,
  "onsense": 98833,
  "Ġâĸ²": 112610,
  "drawing": 81949,
  "ĉcreate": 40363,
  "ĉĉĉĠĠĠĠĠĠĠĠĠĠĠĠĠĠĠ": 77739,
  "_document": 27326,
  "Ġreminding": 64042,
  "ãĢĢãĢĢ": 44529,
  ".face": 47131,
  "olicy": 8177,
  "ĠBlow": 46952,
  "ĠTherefore": 15636,
  "foto": 43238,
  ".Go": 68231,
  "ĠìĿ¼ë°ĺ": 106354,
  "('//": 54379,
  "Ġpolym": 46033,
  "è¿Ļæł·": 104390,
  "umatic": 33030,
  "Ġpitch": 9846,
  "Ġmigliori": 75841,
  "Ġsegments": 21282,
  "ĠSurround": 100060,
  "ĠÎºÎ±Î¯": 129931,
  "Ã¡nchez": 99634,
  "programs": 74053,
  "Ġexter": 55367,
  "_assert": 16962,
  "ombine": 27289,
  "_DEFINITION": 93426,
  "Ãºng": 100987,
  "Ð°Ð½ÑĤÐ°": 106703,
  "xEB": 86311,
  "Ġfaced": 17011,
  "ĠSX": 55868,
  "ĠITER": 88916,
  "ĠTecn": 88320,
  "getDefault": 77087,
  "chod": 103844,
  ",response": 80589,
  "_notice": 52907,
  "backup": 32471,
  "Ġkick": 10536,
  "ÎºÎ¬ÏģÎ¹": 138841,
  "ÑĨÑĸÐ¾Ð½": 112867,
  "Ġà¸Ķ": 101648,
  "(fields": 38801,
  ".Nodes": 53284,
  ".Exists": 28094,
  "jectory": 24251,
  "kara": 107486,
  "ĠtÃ´i": 102598,
  "ĉfrom": 43827,
  "Ġcosplay": 89784,
  "èº«ä½ĵ": 111006,
  "ĠPermissions": 54457,
  "ÏĥÏĦÎ¹Î±": 129452,
  "ĠÎŃÎºÎ±Î½Î±Î½": 130858,
  "dog": 18964,
  "ĠErrorResponse": 96824,
  "Ġdoing": 3815,
  "res": 417,
  "_CITY": 86410,
  "ĠJunior": 31870,
  "ĠKale": 97842,
  "à¤¾à¥¤ĊĊ": 115205,
  "à¸±à¸ģà¸Ĺ": 119309,
  "andes": 62452,
  "Ġparallel": 15638,
  "ĠÎ²Î±Î¼Î²Î±": 143610,
  "anna": 12930,
  "ĠsqlCommand": 86404,
  "itor": 1960,
  "Adjust": 39716,
  "ĠSD": 8189,
  "ĠÏĢÏģÎ¿ÏĥÎ±ÏģÎ¼ÏĮ": 136732,
  "ĠÏĥÏħÎ¼ÏĢÎµÏģÎ¹ÏĨÎ¿ÏģÎ¬ÏĤ": 133332,
  "Scr": 66608,
  "forum": 23405,
  "Ġregain": 49655,
  "ĠIMAGE": 34769,
  "ĠìĥĿê°ģ": 103894,
  "ÙĤØ±": 103614,
  ".jpa": 37804,
  "Ġconfessed": 63417,
  "Ġwit": 38467,
  "icontrol": 78106,
  "Ġbw": 35475,
  "èľľ": 122519,
  "ĠosobnÃŃch": 121204,
  "éŃ": 101523,
  "ĠPay": 11728,
  "TAIL": 27770,
  "_age": 33153,
  "ĠQCOMPARE": 60245,
  ")').": 69738,
  "Ġschedules": 37869,
  "Ġ());ĊĊ": 90784,
  "ÑıÐ³Ð¾Ð¼": 111247,
  "Markup": 54188,
  "Ġkomb": 85564,
  "183": 10750,
  "Ġanz": 78968,
  "Ġphiáº¿u": 114383,
  "Ġincompatible": 53924,
  "_shuffle": 74584,
  ".blogspot": 46389,
  "ĉArray": 59843,
  "agram": 5864,
  "Ġabandonment": 91402,
  ":Boolean": 47184,
  ".Tests": 38233,
  "Ġco": 1080,
  "ĠEk": 50088,
  "Present": 21886,
  "WEEN": 45448,
  ".but": 80017,
  ".backends": 63565,
  ".toDouble": 73108,
  "cmpeq": 100121,
  "Ġemulation": 79941,
  "quipment": 49979,
  "official": 33912,
  "Î¤Î¹ÏĤ": 136240,
  "ĠìłľíĴĪ": 112785,
  "Ġà¤ıà¤ľ": 126221,
  "ĠØªÙĥÙĪÙĨ": 116514,
  "ĠìĻĶ": 127441,
  "ĠEventBus": 90667,
  "objs": 89427,
  "Î¦Î±": 143290,
  "Ġrates": 7969,
  "Autom": 42172,
  "ĠProductions": 52964,
  "æķ¦": 121719,
  "Ġstable": 15528,
  "Ġantennas": 87851,
  ".isnan": 73727,
  "Mes": 60158,
  "ĠGenerates": 53592,
  "ÑģÐ¸Ð¸": 104451,
  "ĠÎŁÎ¹ÎºÎ¿Î½ÏĮÎ¼Î¿Ïħ": 143330,
  "Ġnhá»ı": 104197,
  "ĠRoyals": 70631,
  "_EMP": 69884,
  "_traffic": 91112,
  "ê´": 117484,
  "Ġliteracy": 53082,
  "Ġvlak": 127584,
  "ĠTata": 88245,
  "Ġspelled": 68918,
  "ieres": 65588,
  "ĠÎ±Î³Î³": 129542,
  "ĠÏĥÎµÎ¹ÏģÎ¬": 128486,
  "ĠÐµÑīÐµ": 103564,
  "Ġpromised": 19487,
  "ÑĪÑĥ": 106283,
  "Ġcowboy": 81272,
  "Ġæ¢": 116209,
  "Globals": 49692,
  "adjust": 39819,
  "Ġimpover": 77742,
  "itchen": 7606,
  "ĠDatagram": 97904,
  "Ġkia": 122454,
  "ĠhÃ¢l": 117044,
  "ĠÐ¿ÑĢÐ¾Ð²ÐµÐ´": 104808,
  "fstream": 31616,
  "Suppress": 18138,
  "Ġarma": 52705,
  "endez": 73602,
  "ĠNewport": 59900,
  "ÄŀI": 127605,
  "ĠÙĪÙĦÙĬ": 119986,
  "central": 52911,
  "ĠElder": 39669,
  "ĠÎĳÏĤ": 135122,
  "Ġsushi": 67322,
  "ĠComplete": 19121,
  "Eta": 83288,
  ".getAs": 88380,
  "datas": 28339,
  "Ġroutine": 14348,
  "ĠÎ±Î½Î±ÏĨÎŃÏģ": 129033,
  "Ġcalling": 8260,
  "Ġbroadcast": 13195,
  "atee": 96780,
  "ĠÙħÙĨ": 64337,
  "Ġenf": 33632,
  "ĠPUR": 7480,
  "GB": 5494,
  "ĠChairman": 27390,
  "ĠthuáºŃn": 109146,
  "!\");čĊ": 43112,
  "websocket": 84308,
  "ĠÏħÎ´ÏģÎ¿Î³ÏĮÎ½Î¿Ïħ": 143395,
  "Ġaccredited": 55325,
  "ĠÎ±ÏĢÎ±ÏĥÏĩÏĮÎ»Î·ÏĥÎ·": 134997,
  "artists": 77735,
  "ĠgetName": 20917,
  "webElement": 24816,
  "gray": 11912,
  "-dimensional": 33520,
  "ippy": 46849,
  "ÙĨÙĬ": 101859,
  "bundles": 87760,
  "Ġchaotic": 53087,
  ".DESC": 94220,
  "Ġcd": 15667,
  "-minded": 34423,
  "ĠÑģÐ°Ð¼": 97185,
  "ĠmÃºsica": 71445,
  "èĭ¦": 107202,
  "alla": 21575,
  "jÃŃÅ¾": 124384,
  "ĠaddCriterion": 19246,
  "Ġconformity": 90301,
  "FO": 3873,
  "è½ī": 111554,
  "YOUR": 73613,
  "Ġpnl": 73793,
  "Linux": 47424,
  "ÏĢÎ±Î³Î¿Ïģ": 142974,
  "meer": 91025,
  "Ġtour": 7364,
  ".future": 98793,
  "Ġathleticism": 93174,
  "ĠÎ¸ÎµÎ»": 140858,
  "ListItemText": 88460,
  "ĠHolden": 87485,
  "ĠÎºÎ±ÏĦÎ·Î³Î¿ÏģÎ¿Ïį": 139796,
  "ĠTM": 24929,
  "Ġmuc": 65104,
  "ĠCostco": 81395,
  "oday": 6423,
  "ul": 360,
  "Secret": 20357,
  "ìĬ¤ëĬĶ": 119524,
  "Ġspolup": 111967,
  "ocom": 12255,
  "ĠQHBoxLayout": 82391,
  "à¸Ħà¸£à¸Ńà¸ļ": 125614,
  "LP": 12852,
  "Ġdeploy": 10739,
  "ĠÑĢÐ°Ð·Ð²Ð¸": 118346,
  "Ġbore": 39786,
  "ĠÎ±ÏĢÏĮÎ´ÎµÎ¹Î¾Î·": 137974,
  "ĠSand": 8847,
  "Ð¨": 102346,
  "rium": 41552,
  "ĠJoh": 27268,
  "_xor": 77562,
  "emies": 11288,
  "_FIRST": 37372,
  "Ġè¶": 107429,
  "ĠÎ±Î½Î±Î¼Î¿Î½Î®": 143275,
  "Î·Î³Î®": 128851,
  ".over": 43099,
  "ĠÎºÎ±ÏĦÎ¬ÏĨÎµÏģÎµ": 132181,
  "Ġinoc": 87018,
  "ĠINCLUDING": 16480,
  "_UNDEFINED": 77963,
  "_FATAL": 62640,
  "åį»": 127035,
  "----------------------------------------------------------------------": 54364,
  "à¤Ńà¤Ĺ": 112952,
  "Ġhow": 1268,
  "Ġclustered": 93858,
  "ĠSalad": 64646,
  "ÏģÎ¬ÎºÎ·": 132426,
  "ĠTelecom": 71964,
  "_classes": 17255,
  "Initializing": 77875,
  "Prototype": 34006,
  "ĠÎĳÎ½ÏĦÎ¹": 129849,
  "Ġeternal": 35825,
  "ĠStObject": 30539,
  "_NEG": 63468,
  "ĠAcademic": 42170,
  "orris": 98416,
  "ÙģØª": 101080,
  "Ø®Ø°": 121433,
  ".Draw": 17811,
  "indent": 33940,
  "Ã©c": 20243,
  "rÅ¾": 113895,
  "ĠyazÄ±lÄ±": 120782,
  "FormData": 57066,
  "ĠPit": 40079,
  "_negative": 54965,
  "Special": 20989,
  "ĠParsing": 75889,
  "FN": 42704,
  "vidence": 28580,
  "ĠÎ²Î»ÎŃÏĢÎµÎ¹ÏĤ": 138646,
  ".TOP": 64970,
  "Avoid": 53216,
  "Ġstripe": 46642,
  "Î±Î¹Î¿Î»ÏĮÎ³": 139267,
  "Normals": 93801,
  "ĠMorgan": 23809,
  "_move": 17572,
  "èı²": 112789,
  "ÑģÐºÐ¾Ð¼": 106292,
  "ĠÐ¼Ð°ÑĤÐµÑĢÐ¸Ð°Ð»": 107723,
  "Ġsolved": 29056,
  "-suite": 92674,
  ".port": 14940,
  "Productos": 88116,
  "<Component": 97789,
  "ĠÎĵÎµÏīÏģÎ³Î±Î½ÏĦÎ¬ÏĤ": 141868,
  "Ġdermat": 61485,
  "ĠÎ¶Î®": 128194,
  "ÏĨÎ®": 110132,
  "Last": 5966,
  "ĠÎ£ÏĦÎ·": 129591,
  "Ġautres": 46106,
  "Î¸Î¿": 113862,
  "963": 26087,
  "ateral": 19715,
  "Ġsecretly": 42839,
  "ÏĦÎ¹Î´Î±ÏĤ": 136545,
  "ĠKurul": 117599,
  "_GENERAL": 66436,
  "ĠSAVE": 51722,
  "Ġdevelopment": 4500,
  "ÎµÎ¹Î±ÎºÎ®ÏĤ": 136841,
  "ĠEurogroup": 140872,
  "(rotation": 71334,
  "ĉĉčĊ": 6336,
  "Ġstacks": 41050,
  "(sheet": 62780,
  "MAS": 41192,
  "uyá»ĩ": 101509,
  "Ġdebug": 7542,
  "Ġmillennials": 70433,
  "å¦ĥ": 124769,
  "iele": 25641,
  "ĠRelated": 25368,
  "Î¸ÎŃÎ½ÏĦÎ±": 135427,
  "icken": 9890,
  "fea": 95314,
  "Dar": 53773,
  "ĠGun": 22450,
  "ì¤Ħ": 115087,
  ".unpack": 51863,
  "ĠÎµÎ¾ÏīÏĦÎµÏģÎ¹ÎºÏĮ": 130631,
  "Ġspoil": 65893,
  "STYPE": 78159,
  "ov": 869,
  "VERY": 31619,
  "ĠÏĥÏħÎ½ÏĮÏģÏīÎ½": 137977,
  "Ð°Ð»ÑĮÐ½Ð¸Ñħ": 105702,
  "[MAXN": 79608,
  "DV": 63071,
  "(mm": 68183,
  "alam": 17243,
  "ĠmoveTo": 95881,
  "ĠÎ³Î¿": 134957,
  ".Stage": 70973,
  "Ġconsume": 25024,
  "ÑĨÐ¸ÑĤ": 114112,
  "Ġridic": 20561,
  "ĉĊĊĊ": 75476,
  "_W": 2832,
  "çĤ¸": 122142,
  "ĠÎ´Î¹ÎµÏħÎºÏģÎ¯Î½Î¹ÏĥÎµ": 138898,
  "ĠPAN": 73381,
  "legate": 5096,
  "_CPU": 30841,
  "Ġconseguir": 77959,
  "ĠÏĢÎ¹Îµ": 141615,
  "ĠÎµÏĢÎ·ÏģÎµÎ¬Î¶ÎµÎ¹": 132905,
  "lot": 9363,
  "Ġ},Ċ": 1173,
  "ĠnÃ¦r": 57797,
  "Ġexpense": 20900,
  "posit": 2792,
  "Ġcirculation": 35855,
  "ï¼ĳ": 20713,
  "Ð½ÑıÐ²": 121399,
  "ĠGarner": 87088,
  "Ġran": 10837,
  "ĠÎµÏĦÎ®": 130709,
  "íİĺ": 104249,
  "returned": 78691,
  "Î®Î¼Î±": 129319,
  "Ġunfavor": 81383,
  ".RE": 15056,
  "ĠÎĽÎ¿Î½Î´Î¯Î½Î¿": 134436,
  "Ġorbital": 65691,
  "Ep": 23176,
  "âħ": 71567,
  "_DATABASE": 46610,
  "Ġnp": 2660,
  "Ġngá»įt": 123694,
  "[of": 71954,
  "è°¢": 109122,
  "Ġfinancier": 97398,
  "Ġnovice": 72645,
  "Ġcrude": 35750,
  "Ġ}ĊĊĊĊĊĊ": 80839,
  "ĠAluminum": 46953,
  "ĠZem": 112142,
  "Î»Î¹ÎºÏĮ": 128663,
  "budget": 49506,
  "ToUpper": 77886,
  "ĠAssumes": 99207,
  "etler": 116477,
  "Ao": 99412,
  "ãģĹãģ¾ãģĹãģŁ": 121256,
  "estre": 73875,
  "uslim": 44812,
  "ĠãĥĪ": 108613,
  "ĠBangladesh": 39601,
  "Î¬Î½ÏĦÎµ": 138832,
  "_blocking": 92549,
  "Ġvocal": 26480,
  "ĠÏįÏĥÏĦÎµÏģÎ±": 133509,
  "cksÃ¥": 87686,
  "Ġbacklight": 95422,
  "Appending": 53882,
  "Ġqueens": 70097,
  "Ø§Ø¦ÛĮ": 116606,
  "()>": 22351,
  "Ġpatients": 6978,
  "ĉfind": 81703,
  "æŀĲ": 98871,
  "edelta": 47954,
  "ĠdÃ¡": 123667,
  "ĠæĿ¥": 115316,
  "ĠĠĠĠĠĠĠĠĠĠĠĠĠĠĠĠĠĠĠĠĠĠĠĠĠĠĠĠĠĠĠĠĠĠĠĠĠĠĠĠĠĠĠĠĠĠĠĠĠĠĠĠĠĠĠĠĠĠĠĠĠĠĠĠĠĠĠĠĠĠĠĠĠĠĠĠĠĠĠĠĠĠĠĠĠĠĠĠĠĠĠ": 80971,
  "ÏĢÏĦÎ¹ÎºÎ¬": 137170,
  "ØªØ±ÙĨØª": 119485,
  "apyrus": 90294,
  "CGSize": 61188,
  "bildung": 94690,
  "_GET": 12991,
  "bags": 53494,
  "ĠBerger": 69725,
  ".u": 11895,
  "Ġznam": 109929,
  "Contain": 47622,
  "ĠGrave": 74842,
  "_;Ċ": 8756,
  "ĠFi": 40971,
  ".native": 15054,
  "à¸·à¸Ń": 84681,
  "Ġsupervisors": 74051,
  "odor": 50017,
  "country": 11389,
  ".da": 59608,
  "ĠÎ´Î·Î¼Î¹Î¿ÏħÏģÎ³Î®ÏĥÎ¿ÏħÎ½": 138487,
  "Vari": 57235,
  "Contact": 8906,
  "('>": 87658,
  "->__": 30999,
  "à¤¾à¤°à¤¨": 126965,
  "_quiz": 89436,
  "ÏĨÎ¿ÏħÏĤ": 129499,
  "wise": 4583,
  ").[": 94638,
  "Ġstamp": 21899,
  ":param": 68416,
  "Ġdisappointing": 39223,
  "990": 19146,
  "iculo": 33753,
  "éĴ±": 107112,
  "Ġrestau": 125084,
  ".DeepEqual": 95850,
  "ĉĠ": 3762,
  "_singleton": 83219,
  "ĠÐ·Ð½Ð°ÑħÐ¾Ð´": 115448,
  "Ġstreamline": 82703,
  "ĠæŃ£": 108519,
  "_IMP": 98515,
  "Ġthá»Ń": 110832,
  "apons": 26862,
  "upal": 21175,
  "âĢľOh": 87990,
  "ĠPend": 63500,
  "ÐµÑĢÑĭ": 114655,
  "<>();čĊ": 51821,
  "ĠScores": 71094,
  "Ġpoisoned": 71598,
  "ĠÏĢÏģÏīÏĦÎµÎĲ": 133578,
  "Ø¨Øª": 102120,
  "Ġkoc": 126501,
  "åĨĽ": 103626,
  "ĠÏİÏĤ": 142107,
  "ders": 12601,
  "ĠÏĩÎµÎ¹ÏģÏĮÏĦÎµÏģÎ±": 141699,
  "ĠÏĢÎ®Î³": 136690,
  "Ġswaps": 74251,
  "Ġcharging": 23468,
  "ĠFar": 13759,
  "åĳ¨æľŁ": 62249,
  ".listen": 23453,
  "Ġassoc": 60707,
  "Ġburied": 28016,
  "åĬŀçĲĨ": 127149,
  "ĠgiÃłu": 126824,
  "ĉDECLARE": 54112,
  "Ġthá»ķ": 125379,
  "ĠÎ¼ÏĢÏĮÏģÎµÏĥÎµ": 143547,
  "ĠÎłÎ¡Î©Î¤": 142083,
  "\"[": 37964,
  "seudo": 22719,
  "Ġadmissions": 48911,
  "Ġloan": 11941,
  "_multiple": 46333,
  "ĠAppeal": 62006,
  "Ġdenim": 64905,
  "imson": 46545,
  "ĠStory": 15457,
  "eed": 12320,
  "Î¹Î½ÏīÎ½": 113771,
  "Ġbbc": 91726,
  "Imagine": 52157,
  "Cou": 69310,
  "ĠØ±ÙħØ²": 121677,
  ".some": 49047,
  "Ġhookers": 93727,
  "Ġsufficiently": 40044,
  "ington": 4910,
  "Ġaos": 43914,
  "ĠQaeda": 54118,
  "CASCADE": 86931,
  "bg": 12498,
  "chter": 67785,
  "fty": 38058,
  "ĠÏĢÎµÏģÎ¹ÏĨÎŃÏģÎµÎ¹Î±ÏĤ": 140910,
  ".encoding": 66218,
  ".results": 27526,
  "Ġmurderous": 85229,
  "ĠBarg": 87814,
  "forg": 97944,
  "Ġabsl": 89402,
  "ĠZw": 64265,
  "_cached": 65469,
  "ĠÛĮØ§ÙģØªÙĩ": 121090,
  "_KERNEL": 40737,
  "CSI": 49507,
  "ĠScotch": 93050,
  "okol": 105923,
  "omic": 3151,
  "Ġà¤°à¤ĸà¤¤": 121329,
  "ĠTrang": 121027,
  "Mel": 40249,
  "$start": 78261,
  "Ð°ÑĤ": 8131,
  "ĠArlington": 59796,
  "Î¸ÎµÎ¯ÏĤ": 133429,
  "tone": 59029,
  "ĠBrady": 36470,
  "Ġcries": 58845,
  "ķãĤĵ": 85667,
  "ĠÎ±Î½Î±ÏĢÎ»Î·ÏģÏīÏĦÎ®ÏĤ": 139193,
  "ĠMedal": 17867,
  "!!!Ċ": 80395,
  "books": 12383,
  "ĠÏĥÏįÎ½Î¿ÏģÎ±": 133607,
  "ĠÐĽÐ¸": 115940,
  "Ġå¼ķ": 126313,
  "Î»ÏİÏĥÎµÎ¹ÏĤ": 128882,
  "uong": 69895,
  "gressive": 47819,
  "ĠÐ´ÐµÐ»Ðµ": 120664,
  ".Packet": 95071,
  "ĠÐ³ÐµÐ½ÐµÑĢÐ°": 116595,
  "Ġbreathe": 37397,
  "ĠKrish": 62064,
  "Ġà¤ħà¤µ": 105528,
  "((*": 27707,
  "idents": 7024,
  "dims": 55590,
  "=p": 17841,
  "ĠØªØ§Ø±ÛĮØ®": 104793,
  "latitude": 24649,
  "ĠValidationResult": 99694,
  "ĠâĦĸ": 97990,
  "ÎĬÏĥÏīÏĤ": 143437,
  "'\")Ċ": 70650,
  ":Add": 55776,
  "Ð²ÐµÑĢÐ¶": 122363,
  "ĠÎºÎ¬Î½Î¿ÏħÎ½": 128728,
  "xd": 9902,
  "ĠçĦ": 105656,
  "_FACTORY": 72252,
  "ĠPerkins": 66011,
  "Ġconfigure": 14749,
  ".setName": 28737,
  "monthly": 70238,
  ".If": 34001,
  "stants": 7031,
  "ĠÙħÙĪØ¬Ø¨": 121397,
  "Ġcaramel": 59811,
  "eli": 12574,
  "èĪĹ": 124750,
  "centration": 94376,
  "ÏĦÎ¿Î¯": 129835,
  "andbox": 32636,
  "Den": 24539,
  "Ġî": 101274,
  "Ġdisabled": 8552,
  "ĠMind": 23754,
  "Ġgarg": 97183,
  "_matrices": 96290,
  ",p": 7385,
  "ĠOUTER": 90775,
  "},'": 77142,
  "AccessToken": 38749,
  "Î¬ÏģÏĦÎ·Î¼Î±": 131349,
  "ux": 2249,
  "ï¿£ï¿£": 101092,
  "(Category": 59181,
  "ĠÐ¸ÑģÑĤ": 108201,
  "ĠÎµÏĢÎ±Î½Î±ÏĨÎ¿ÏģÎ¬": 142001,
  "(rect": 31454,
  "Ġsubmissions": 37935,
  "Ġloading": 8441,
  "ĠÐ³Ð¾Ð»Ð¾Ð²Ð¸": 124770,
  "sample": 13925,
  ":size": 42721,
  "eric": 11893,
  "Ġï½": 101370,
  "ĠÎ£ÏĦÎµÏģÎµÎ¬": 141711,
  "Ġ},čĊ": 10080,
  "ÑĥÐ»ÑĮÑĤÐ°": 124425,
  "Î¼ÎµÏģÏİÎ½": 138383,
  "Ġreveals": 21667,
  "ests": 18450,
  "ÙģØ©": 109186,
  "_bill": 64253,
  "bookmark": 61475,
  "ĠSupplier": 32804,
  "Argentina": 96517,
  "pch": 71448,
  "alarÄ±n": 107940,
  "Ġperplex": 74252,
  "(parameter": 42794,
  "Ġwon": 2834,
  "ÏĦÎ·Î½Î®ÏĤ": 143655,
  "ĠMartinez": 44027,
  "Ġpets": 26159,
  "ĠÎ¹ÏĥÎ¿ÏģÏģÎ¿": 131486,
  "_PER": 10842,
  "è±Ĩ": 117203,
  "RES": 7157,
  "Ø§Ø°Ø§": 119463,
  "Ġvraiment": 60019,
  "utenberg": 45533,
  "\\Unit": 95702,
  "ĠLou": 9928,
  "Ġpron": 19126,
  "studio": 60119,
  "ĠÎµÏħÏĩÎ±ÏģÎ¯Ïĥ": 138558,
  "iration": 20202,
  "plen": 87635,
  "Î¸ÎµÏģÎ±": 131397,
  "ADI": 34885,
  "Ġsized": 30387,
  "ç¢": 81802,
  "ĠÏĢÏģÎ¿Î²Î»Î·": 129344,
  "-Pacific": 64976,
  "ĠUserProfile": 56199,
  "Ġpubb": 61249,
  "Ġphilosopher": 55475,
  "_rewards": 79097,
  "à¥Ĥà¤¹": 116487,
  "ï¼¾": 68230,
  "_ss": 42948,
  "ĠÎ´Î¹Î±Î²Î®ÏĦÎ·": 138577,
  "å§Ĭ": 120559,
  "ĠÎ¼ÎŃÎ¸Î¿Î´Î¿": 131301,
  "Ġshells": 44054,
  "Ġroommate": 70414,
  "ĠÎ¼ÎµÏģÏİÎ½": 138742,
  ".opts": 57122,
  "ÑĢÐ¾Ð¼": 100908,
  ".about": 58063,
  "disposed": 76629,
  "_az": 96487,
  "ÑĥÐ»Ð°": 118596,
  "ĠÐ¼Ð°": 104276,
  "âĢľThese": 93269,
  "Ġharmless": 53997,
  "à¥Ģà¤ľ": 102882,
  "elic": 43723,
  ".price": 18548,
  "à¥įà¤¡": 101592,
  "Ġmadness": 52819,
  "-style": 11549,
  "Ġhex": 12651,
  "bbie": 55971,
  "parity": 95468,
  "ĠHighest": 60713,
  "Ġcryptocurrency": 27128,
  "Î¬Î½ÎµÎ¹Î¿": 140555,
  "Ġsynthetic": 28367,
  "ĠFirst": 5629,
  "ĠØ³ÙĨØ©": 106940,
  "itu": 33462,
  "Ġpygame": 15041,
  "ĠBeckham": 81103,
  "/owl": 69718,
  "ç±": 19630,
  "<>(": 21238,
  "ÑģÐºÐ¸Ðµ": 106686,
  "illary": 35605,
  "Ġdic": 21945,
  "Ġnaughty": 54043,
  "ĠBare": 61892,
  "bean": 17937,
  ".Hosting": 55197,
  "ĠÄįlÃ¡nku": 111121,
  "Ġipc": 61204,
  "ĠParade": 63654,
  "openssl": 54712,
  "ìļĶìĿ¼": 114020,
  "ammo": 99427,
  "ĠGW": 42353,
  "Os": 29967,
  "(sh": 24135,
  "Å¯vodu": 115659,
  "Ġbeverage": 43450,
  "Ġmarginal": 32873,
  "ÎºÎ¯": 134364,
  "ĠsaÄŁlam": 116355,
  "Ġaccelerator": 65456,
  ".Rectangle": 56114,
  "ĠIndones": 20878,
  "à¸´à¸Ī": 102624,
  "_accessor": 35001,
  "å°ıå§Ĳ": 111319,
  "ĠÑĢÐ°Ð¹Ð¾Ð½": 104726,
  "Even": 13461,
  "çĹĩ": 111571,
  "Ġ(!": 1533,
  "cast": 3914,
  "Ġquam": 90939,
  "5": 20,
  "Ġendeavour": 90031,
  "ĠChar": 4969,
  "ĠflexDirection": 30497,
  "ĠVery": 15668,
  "\\View": 32433,
  "Ġpathways": 44014,
  "Ġcharisma": 99749,
  ".isRequired": 20529,
  "Expressions": 41415,
  "Îŀ": 110826,
  "Ġdrowned": 74995,
  "Ġlaughter": 43214,
  "Ellipse": 82675,
  "Ġ///<": 21794,
  "Ġresurgence": 91590,
  "earchBar": 93436,
  "BIT": 21587,
  "restrict": 28998,
  "ĠÎ±ÏĥÎº": 132822,
  ";element": 75262,
  "ĠãĢĢãĢĢãĢĢãĢĢãĢĢãĢĢãĢĢãĢĢãĢĢãĢĢãĢĢãĢĢãĢĢãĢĢãĢĢãĢĢ": 106892,
  "ĠÎŃÎ½ÏĦÎ¿Î½Î¿": 136498,
  "Ġdismay": 73082,
  ":border": 98228,
  "Ġextremely": 9193,
  "ĠÑĢÐµÐ¶Ð¸Ð¼": 111030,
  "Ġcorrespondence": 44818,
  "adlo": 114951,
  "Ġtro": 8348,
  "ãĤĮãģªãģĦ": 110615,
  ".keys": 9301,
  "Î»ÏİÎ½Î¿ÏħÎ½": 132830,
  "ÑĢÐ¾ÑģÑĤ": 103332,
  "çĶ£": 106518,
  "Ġencontrar": 46723,
  "Ġele": 10732,
  "REFER": 11698,
  "Ġmotivo": 79564,
  "-watch": 85396,
  "ÏĥÏĦÎŃ": 129391,
  "ĠDank": 71507,
  "ĠOk": 7777,
  "åĿĽ": 116634,
  "urtles": 52214,
  "Ø§ÙĪ": 100356,
  "Ġprimer": 27909,
  "Wer": 93092,
  "ĠÎ±ÏģÏĩÎ¹ÎºÎ¬": 130100,
  "Ġ{\\": 29252,
  "Ġalley": 54050,
  "Album": 33478,
  ".herokuapp": 49269,
  "å½": 14608,
  "-rise": 89499,
  "Prod": 42379,
  "NewItem": 97051,
  "ĠÎŃÎ³ÎºÏħ": 134899,
  "ĠCov": 63736,
  "Ġorange": 19087,
  "uess": 34401,
  "Ġyerel": 121852,
  "Ġ'>": 57007,
  "ColumnsMode": 96560,
  "ĠLibyan": 79597,
  "ä¼ı": 117656,
  "Ġ//(": 68122,
  "ĠLip": 42239,
  "lore": 20763,
  "Hardware": 67962,
  "ĠÎ±ÎºÏĦÎ¹Î½Î¿Î²Î¿Î»": 134190,
  "aniu": 73531,
  "Ġtuples": 46325,
  "ĠÐ½ÐµÐºÐ¾ÑĤÐ¾ÑĢ": 106996,
  "Ġpudding": 82527,
  ".Email": 25033,
  "/language": 89536,
  "ÐµÐ¾": 121793,
  "ÑĥÐ»Ð¸": 104776,
  "Ġtrout": 80827,
  "257": 15574,
  "userinfo": 62610,
  "=\\\"": 4162,
  "ĠmakeStyles": 36905,
  "ĠÐ¸ÑģÐ¿Ð¾Ð»ÑĮÐ·Ð¾Ð²": 89327,
  "Failed": 9595,
  "(filePath": 30705,
  "ĠÏĩÏģÎµÎ¹Î¬Î¶Î¿Î½ÏĦÎ±Î¹": 134013,
  "imiento": 16721,
  "Ġconserve": 78548,
  "ĠScor": 80435,
  "ĠÏĢÎµÏģÎ¹Î¿Î´Î¹ÎºÎ¬": 140094,
  "Ġ//'": 51125,
  "Î®ÏĨ": 128528,
  "ĠSmartphone": 75037,
  "sol": 39298,
  "ç«": 25781,
  "COME": 48485,
  "ighbour": 47918,
  "_parsed": 76888,
  "ectar": 39916,
  "aptured": 81328,
  "Ġrooft": 56705,
  "ĠRSA": 46741,
  ":X": 84630,
  "ĠLottery": 73337,
  "Ġpedestal": 92755,
  "ï": 171,
  "ĠGÃ¼r": 126374,
  "ÑĩÐ°ÑĤ": 110258,
  "ĠÎµÏĢÎ¹ÏĩÎµÎ¹ÏģÎ¿ÏįÎ½": 142300,
  "ĠÎ´ÎµÎ¹": 129454,
  "Û²Û°Û±": 103600,
  "encode": 6311,
  "ÏĥÎ²": 133935,
  "mutations": 52855,
  "Ġincorporation": 88465,
  "ĠLines": 39333,
  "Ġentering": 16661,
  "SenderId": 91373,
  "ĉmax": 23359,
  "ĠJet": 25365,
  "_mov": 56898,
  "/TR": 53427,
  "','": 1882,
  "Ð»ÑİÑĶ": 124216,
  "ÎłÎ¡": 137331,
  "ilot": 24911,
  "åĨĴ": 112798,
  "Ġactresses": 91128,
  "EMPLATE": 28732,
  "_router": 56687,
  "Ġselected": 4183,
  "Ø§Ù¾": 102451,
  "ĠvÃłng": 111014,
  "getResponse": 60441,
  "Ġmissionary": 73998,
  "mdb": 79227,
  "Ġtalented": 23944,
  "ĉw": 6831,
  ".setMessage": 42274,
  "Ġé¢Ħ": 122237,
  ".EndsWith": 80501,
  "Ġjoys": 94898,
  ".anim": 38636,
  "Ġlookahead": 87845,
  "ĠØ¨Ø¯Ø§ÙĨ": 125224,
  "Ġplaza": 73098,
  "=======Ċ": 42505,
  "_areas": 79672,
  "vlc": 99504,
  "\"),ĊĊ": 67074,
  "Scheme": 30006,
  ".array": 7382,
  "Ġspacious": 33236,
  "intval": 58702,
  "çľī": 121308,
  ".leave": 90403,
  "ottom": 2896,
  "ĠzÅĤ": 59168,
  "Ġverses": 50399,
  ".getConnection": 31554,
  "âĦĸ": 105173,
  "æ¢¯": 121577,
  "ç¥ŀ": 101365,
  "ĠPunjab": 60417,
  "ieee": 83254,
  ".Resolve": 58975,
  "(new": 1792,
  "é¡»": 108434,
  "ÑĥÐ²Ð°ÑĤÐ¸ÑģÑı": 112162,
  "Ġnephew": 63904,
  "-minus": 72123,
  "Î»": 34586,
  "ioms": 91269,
  "idor": 29856,
  "Î¹Î´Î¯Î¿Ïħ": 138865,
  "_AHB": 96946,
  ".pages": 39080,
  "ĠSHA": 22466,
  "ĠÎķÎ»Î»Î·Î½": 121029,
  "ifu": 21519,
  "Ġrocking": 67724,
  "ĉĉĠĠĠĠĠĠĠĠĠĠĠĠ": 84368,
  "ĠpokraÄį": 111957,
  "AIM": 14660,
  "ĠÎ¹ÏĥÏĦÎ¿ÏįÏĤ": 143818,
  "Ġraft": 53555,
  "icky": 19501,
  "Ø¤Ø§ÙĦ": 125299,
  "Ð¸Ñī": 120183,
  "ĠÎķÎĽÎĵÎŁ": 143853,
  "ĠSources": 48132,
  "Ġcentr": 39239,
  "_example": 40404,
  "Ġpull": 6958,
  ".ModelSerializer": 73749,
  "={(": 17237,
  "ĠSol": 11730,
  "Clicked": 22008,
  "663": 24491,
  "Diagnostic": 80488,
  "errals": 56243,
  "&lt": 33580,
  "ĠlÃ´ng": 124240,
  ".Automation": 98217,
  "ĠHÃ¼s": 127664,
  "ĠFlam": 97957,
  "MLE": 26100,
  "Ġrelent": 43946,
  "ĠStrauss": 94511,
  "Ġtouches": 29727,
  "ê²łëĭ¤": 125684,
  "Ġspending": 10374,
  "ÃŁe": 24352,
  "Ġconfigparser": 98537,
  "Ġturbine": 66270,
  "_template": 8864,
  "ĠHill": 8270,
  "åĶĩ": 119865,
  "ĠØ§ÙĦØ¹Ø¸": 124989,
  "?s": 56470,
  "Î»Î±Î²": 129172,
  "Ġwet": 14739,
  "ĠÏĢÎ»Î¿ÏįÏĥÎ¹Î±": 136591,
  "Ġverte": 67861,
  "ìģ": 113222,
  ".prof": 93605,
  "CÄ°": 127199,
  ".Vector": 14621,
  "uchos": 68350,
  "INY": 66053,
  "ĠÏħÏĢÎ¿ÏĥÏĦÎ·ÏģÎ¯Î¶Î¿Î½ÏĦÎ±ÏĤ": 141774,
  "ĠØ¨ÛĮÙħØ§Ø±ÛĮ": 117511,
  "_refs": 61738,
  "Ġchances": 17393,
  "ĠÐ¿ÑĢÐ¾Ñħ": 120753,
  "ĠTeams": 40713,
  "ĠÑĸÐ´Ðµ": 117761,
  "aab": 89707,
  "Ġreson": 29280,
  "Ġrisking": 86022,
  "ĠÎµÏĢÎ±Î½ÎµÎ¹Î»Î·": 141248,
  "ĠRAW": 53951,
  "Ġviolently": 65300,
  "-added": 87442,
  "Î¸Î·ÎºÏİÎ½": 132416,
  "ĠFranken": 91815,
  "ĉĉĠĠĠĠĠĠ": 29766,
  "neum": 126261,
  "Ġpocit": 123013,
  "ĠÃ¡nh": 111771,
  "actical": 37119,
  "ĠPassword": 12642,
  "Ġhanding": 52588,
  "à¤¾à¤¤": 100444,
  "setOnClickListener": 64728,
  "Ø§Ú©ÛĮ": 124086,
  "ulings": 68349,
  "Ġdismissal": 59323,
  "ĠsÆ¡": 105769,
  "Ġnd": 15953,
  "\"name": 32586,
  "ĠCurrent": 9303,
  "Ġrespects": 43666,
  "[arr": 78556,
  "è«ĸ": 105242,
  "Ġreleases": 19786,
  "ternet": 114239,
  "Ġingin": 89011,
  "ĠÏħÏĨÎ¯ÏĥÏĦÎ±ÏĦÎ±Î¹": 135193,
  "ĠØ®ÙĦ": 109330,
  "Ġstead": 17269,
  "Ġirrespective": 76653,
  "ĠìĿ´ë¦Ħ": 87134,
  "ĠLaguna": 94198,
  "ox": 5241,
  ".CreateDirectory": 72397,
  "ĠÐ½ÐµÐ¿ÑĢÐ¸ÑıÑĤ": 124404,
  "Ġaus": 9608,
  "getPlayer": 96072,
  "Ġunset": 18484,
  "_collections": 90842,
  "_invite": 96010,
  "à¤Ķ": 122390,
  "ulet": 49518,
  "ĠNord": 30281,
  "Ġweiber": 71449,
  "Scheduler": 39978,
  "Ġfulfillment": 57383,
  "ÑĶÐ½": 104942,
  "setFlash": 63489,
  "isku": 127470,
  "ĠLoss": 25733,
  "colour": 48439,
  "belum": 79344,
  "ĠÎ³ÏħÎ½Î±Î¯ÎºÎ±ÏĤ": 135790,
  "ÏĢÎ±Ïģ": 128783,
  "Ġtimely": 32100,
  "ansk": 41874,
  "ĠØ¢": 100281,
  "ĠÎ¼ÎµÏĦÎ±Î²Î»Î·ÏĦÏİÎ½": 138163,
  "Ġìº": 106278,
  "ĠÐ·Ð°Ð²ÐµÑĢÑĪ": 115902,
  "ĠSelling": 54820,
  "ĠÎĶÎ·Î¼Î®": 129973,
  "Ġclearer": 49479,
  "Ġtempting": 61299,
  "ĠÎ¾ÎµÏĩÏīÏģÎ¯Î¶ÎµÎ¹": 142790,
  "ĠStudies": 19241,
  "etry": 15501,
  "Ä±mda": 117011,
  ".Push": 36081,
  "ÎŃÏĩÎµÎ¹": 134464,
  "ĠPersistence": 65336,
  "dro": 11513,
  "}Ċ": 534,
  "Ġprocession": 84814,
  "Î¸Î®ÎºÎ·": 120745,
  "ĉCon": 94170,
  "ĠÏĦÎ¿Î½Î¯Î¶ÎµÏĦÎ±Î¹": 140247,
  "raya": 114525,
  "ĠEXPRESS": 16832,
  "ĠMormons": 92973,
  "_sess": 84956,
  "ĠParliamentary": 87415,
  "ĠÎºÎ±ÏĦÎµÏħ": 130993,
  "_based": 67779,
  "ĠtÃ¡ch": 125504,
  "Ġlots": 10283,
  "-w": 2695,
  "Ġblackmail": 88263,
  "ĠÅ¡kol": 104605,
  "ĠPew": 57717,
  "Ġide": 2679,
  "ĠÎµÎ¾ÏĮÏĨ": 142490,
  "signature": 35240,
  "checking": 58954,
  "BindView": 36902,
  "raphic": 79173,
  "Ġtelecommunications": 62866,
  "ĠUNION": 78653,
  "ĠDisney": 16795,
  "()?.": 58595,
  "Ġcorrectly": 12722,
  "ĠNumer": 48224,
  "utter": 6339,
  "ANJI": 81882,
  "Ġawesome": 12738,
  "ENTA": 73421,
  "-muted": 31840,
  "urdy": 40218,
  "eventId": 91456,
  "ĠÎĿÎ·": 136206,
  "erv": 651,
  "ĠÎ¼Î¯Î»Î·": 131403,
  "italic": 35506,
  "ĠGI": 49609,
  "Ġfolklore": 98969,
  "ĠESV": 84111,
  "soup": 90642,
  "ĠÐ¾Ð±ÑĢÐ°": 119290,
  "Uploader": 68674,
  "ĠTh": 666,
  "ĠinformaÃ§Ãµes": 65166,
  "ĠPillow": 81835,
  "ĠÎľÎ¿ÏħÏĥ": 130376,
  "ĠÏģÏīÏĥÎ¹ÎºÎ¿Ïį": 142222,
  "Î¬ÏģÎ¼Î¿": 140063,
  "ĠÏĢÏģÎ¿Î·Î³Î¿Ïħ": 133875,
  "Ġë°ĶìĿ´": 124852,
  "ØŃÙĬØŃ": 122811,
  "(author": 49369,
  "ĠSAFE": 66969,
  "Editing": 20814,
  "Ġyok": 90777,
  "-driving": 60811,
  "ĠÏĢÏģÎ¿ÏĢÎ±Î³": 141662,
  "æŁĵ": 108208,
  "Ġbouncing": 65128,
  "487": 22184,
  "ãĤĦãģĻ": 126172,
  "burger": 63552,
  "Ġobtains": 94663,
  "ĠÎ¤Îĳ": 134764,
  "è¯´": 37687,
  "ĠHarley": 52776,
  "ĠÎºÎ¿ÏħÎ²ÎŃÎ½ÏĦÎ±": 143834,
  "Ġquite": 5115,
  "Ġcanoe": 84589,
  "ĠØ±ÙĪØ§ÙĨ": 116582,
  "ĠSymptoms": 77417,
  ".Cursors": 56776,
  "éĺ³": 83175,
  "Ġgrues": 76157,
  "kovÃ½ch": 116737,
  "ĠÂµ": 64012,
  "ĠyapÄ±lacak": 115294,
  "ĠÎµÏĢÎ¯Î¼Î±": 136218,
  "ouncements": 55364,
  ".Servlet": 39093,
  "ĠÏĩÏģÎ¹ÏĥÏĦÎ¹Î±Î½": 135654,
  "Ð¾Ð»Ð¾Ð³": 100971,
  "ĠÏĢÏģÏĮÏĥÎ²Î±ÏĥÎ·ÏĤ": 133531,
  "Texto": 96023,
  "Ġdois": 51441,
  "æ±ĩ": 113912,
  "ÏĦÎµÏģÎ¿Î¹": 137547,
  "Ġchá»©c": 101774,
  "Ġmicrobes": 80727,
  "...ĊĊ": 2195,
  "ĠÎĽÎ®": 141216,
  "ĠÎ±Î²": 132454,
  ".activate": 56189,
  "Subset": 71684,
  "Ġdomingo": 90540,
  "ÙĥÙĬ": 102848,
  "ĠåıĬ": 115623,
  "ĠÎĳÎ½Î´": 131183,
  "Ġsideline": 80053,
  "Ø·Ø¨ÙĬ": 108258,
  "Ġwouldn": 8434,
  "ĠMort": 22806,
  ".export": 42559,
  "çŁ¿": 119016,
  "ĠÏĢÎ»Î·Î¼Î¼Ïį": 141390,
  "à¸Ńà¸Ńà¸ģà¹ģà¸ļà¸ļ": 126695,
  "Dep": 7996,
  "Ġprevent": 5471,
  "ibles": 21041,
  "Subjects": 91517,
  "Ġofrece": 89539,
  "Ġmonarch": 63854,
  "Ġredhead": 92805,
  "ÏģÎº": 118334,
  "Ġbou": 30870,
  "VIDEO": 51695,
  "_PI": 20825,
  "Ġsc": 1156,
  "ĠÐ´Ð¾ÑĤÑĢÐ¸Ð¼": 126518,
  "ESTAMP": 31755,
  "Ġphysicist": 83323,
  "Ġpositions": 10093,
  "Ġmourning": 76350,
  "Ġ__(\"": 56661,
  ".userData": 68947,
  "type": 1337,
  "ĠØ®": 75415,
  "ĠÎ¿ÏĢÏĮÏĦÎµ": 130935,
  "Ġhashtable": 83210,
  "ĠÎµÎ¼ÏĨÎ¬Î½Î¹ÏĥÎ·ÏĤ": 135941,
  "Ġfoul": 40884,
  "ĠçĶ·": 109078,
  ";)": 37274,
  "à¥ĩà¤¹à¤°": 118869,
  "-about": 69205,
  "Ġhá»§y": 123964,
  "Ġmemor": 16420,
  "=\"#\">": 15608,
  "ĠÎºÎ¹Î½Î·Î¼Î±ÏĦÎ¿": 135466,
  "Ð¾ÑĩÐ½Ð¾Ð³Ð¾": 117638,
  "ÎºÎ¿ÏħÏĤ": 131464,
  "-cut": 43321,
  "detector": 92644,
  "());//": 71739,
  "Ġaxs": 76262,
  "Ġhaf": 105539,
  "ĠÎ¼ÎŃÎ³Î¹Ïĥ": 137763,
  "ĠÎľÎµÏĦÎ¬": 130483,
  "Î¿Î½ÏĦÎ±ÏĤ": 114837,
  "(href": 93076,
  "Ø§Ø¯Ùĩ": 100715,
  "\"\"\"": 12885,
  "ÎµÏģÎ¼Î±Î½": 120211,
  "ssue": 84990,
  "ÑģÑĮÐºÐ¸Ð¹": 101949,
  "ç®±": 74396,
  ".gb": 78362,
  "Ġear": 2487,
  "concert": 89405,
  "userId": 13816,
  "ĠhttpRequest": 78647,
  "ĠdespuÃ©s": 50649,
  "Ġoutspoken": 70379,
  "ÙıÙĦ": 114502,
  "_typeDefinitionSize": 67750,
  "-chief": 74719,
  "ĠCocktail": 93816,
  "ĠLG": 24294,
  "ĠÏĩÎ±Ïģ": 129315,
  "ĠNorman": 41168,
  "Ġqu": 934,
  "ĠtrÆ°á»Ľc": 102259,
  "Ġrestaurants": 15926,
  "åĳ½åĳ¨æľŁ": 63397,
  "larÄ±yla": 109824,
  "ĠHerbert": 58463,
  "Ġyans": 124501,
  "ĠKn": 13934,
  "(cin": 56014,
  "_THROW": 44997,
  "Ġbre": 5395,
  "Ġrop": 49495,
  "à¥ĭ": 55675,
  "Ġtbody": 46520,
  "Twitter": 25904,
  "presso": 35560,
  "çĦ¡æĸĻ": 92693,
  "ĠÎ±Î½Î±ÏĥÏĨÎ¬": 143524,
  "ĠÏħÏĢÎ¿Î½Î¿Î¼Îµ": 142811,
  "_stylesheet": 85824,
  "Ġencuent": 36837,
  "Ð°Ð½Ðº": 113930,
  "ĠjQuery": 13518,
  "ĠÏĢÏģÎ¿ÏĥÏīÏģÎ¹Î½": 131478,
  "othy": 29671,
  "ĠDemonstr": 86501,
  "ĠÎ¿ÏģÎ³Î±Î½Î¹ÏĥÎ¼Î¿ÏįÏĤ": 135799,
  "Ġbrewers": 93970,
  "_mono": 61180,
  "ĠelÃ©": 86706,
  "ĠÎ±Î½Î±ÏĨÎ¿ÏģÎŃÏĤ": 133143,
  "oute": 2182,
  "ĠMillenn": 52428,
  "æ²¡": 72027,
  "-T": 9469,
  "-bordered": 32454,
  "ĠØ±Ø§ÙĩÙĨÙħ": 123824,
  "Current": 5520,
  "ĠgÃ¼n": 88787,
  "_crypto": 79398,
  "----</": 26535,
  "Ġrif": 38024,
  "oug": 49404,
  "Ġlesb": 23625,
  "ĠÏĥÏħÎ¼Î²ÎµÎ¯": 132432,
  "ĠTor": 8611,
  "Leave": 22586,
  "ĉversion": 76054,
  "Ġprices": 7729,
  "Spacing": 28124,
  "ToolBar": 55266,
  "raman": 125036,
  "åıĤæķ°": 33765,
  "ĠAra": 88469,
  "Ġsinh": 98932,
  "xbe": 43559,
  "Ã¡lnÃŃho": 111712,
  "ĠÎ±Î½Î¬Î»Î¿Î³Î±": 129913,
  "Ġnorsk": 65367,
  "Ġpatriotic": 77784,
  "Ġ'čĊ": 27959,
  ".SetFloat": 82963,
  "ÐµÐ¼ÑĭÐµ": 123699,
  "Ġfittings": 70026,
  "ĠÎ¼ÏħÎ¸": 139470,
  "ĠÐºÐ°ÑĢ": 102899,
  "ĠSkinny": 95324,
  "uers": 84525,
  "Ġcole": 74041,
  "ĠÎĦ": 135719,
  "Î±Î¹Î½ÎŃ": 138928,
  "WebView": 37454,
  ".blit": 39636,
  "ĠLounge": 50767,
  "ĠÏĢÎ¿Î»ÏħÏĢ": 136605,
  "tracked": 59481,
  "_my": 36786,
  "Ġdiminish": 57160,
  "Ġbookings": 59620,
  "(dp": 35899,
  "Ġdzieci": 85983,
  "\\\"\"": 58239,
  "ĠÏĢÎ±ÏģÎ±Î³ÏīÎ³ÏĮÏĤ": 136604,
  "Ġà¤īà¤ª": 102062,
  "ALLEL": 87837,
  "ĠÎµÎ¾ÏīÏĦÎµÏģÎ¹ÎºÎ¿Ïį": 134984,
  "ĠÏĥÏīÏĥÏĦÏĮ": 136531,
  "Ġ(\\<": 25327,
  "Ġbrill": 18041,
  "ÑģÐ»Ð¾Ð²": 103653,
  "(widget": 35790,
  "(rd": 76346,
  "ÏģÎŃÎ¿Ïħ": 135054,
  "Ġneon": 47752,
  "Yii": 34767,
  "Ġbracelet": 59519,
  "(){ĊĊ": 19888,
  "Calculator": 56843,
  "hur": 104402,
  "Ġngoáº¡i": 109621,
  "Ġsegmented": 86045,
  "ĠProp": 3998,
  "ĠIS": 3507,
  "ãģ«ãģª": 101983,
  "Ġlvl": 47229,
  "Ġespan": 80655,
  "ousse": 46651,
  "ĠâĪļ": 122371,
  "ÏĥÎµÏģ": 143621,
  ".li": 62519,
  "ĠPattern": 19365,
  "Ġbypass": 31818,
  "terior": 41644,
  "äºľ": 127022,
  "Ġnegot": 11903,
  "Ø§ÙħÛĮÙĨ": 115457,
  "à¶": 55742,
  "ĠÎĴÏģÎµÏĦÎ±Î½Î¯Î±ÏĤ": 139019,
  "-flat": 66568,
  "HTTPRequest": 64865,
  "Recipe": 29880,
  "ĠÎ´Î¹Î¿Î¹ÎºÎ·ÏĦÎ¹ÎºÎ¬": 143311,
  "Ġoldu": 58100,
  "ĠSale": 13618,
  "ĠTate": 68108,
  "esehen": 82284,
  "ĠÏĢÎ±ÏģÎ¿ÏħÏĥÎ¹Î¬ÏĥÏĦÎ·ÎºÎ±Î½": 141074,
  "ÏĦÏĥÎ¬": 139094,
  "proved": 96608,
  "ĠÎ¹Î´Î¹ÏīÏĦÎ¹ÎºÎ¿Ïį": 136053,
  "osite": 88842,
  "Ranked": 95877,
  "anuts": 73852,
  "ĠÚĨÛĮØ²": 119676,
  "_FLAGS": 31190,
  "Ġwith": 449,
  "ĠCatalog": 32321,
  "Bes": 40826,
  "Ġantlr": 86369,
  "ê¸°ë¡ľ": 122211,
  "Ġvisceral": 89116,
  "à¤¾à¤¹": 100731,
  "Ø¸Ø±": 106394,
  "toArray": 28874,
  "ĠÎ´Î·Î¼Î¿ÏĦÎ¹ÎºÎ¬": 143545,
  "Î»Î»ÎµÎ¯": 132177,
  "Ġetk": 102824,
  "Ġgall": 19754,
  ".FAIL": 74219,
  "(IT": 89133,
  "Ġxm": 56349,
  "ĠCaj": 96879,
  "anlÄ±k": 118581,
  "ĠEmm": 66555,
  "ĠÙ¾Ø±ÙĪÙĨØ¯Ùĩ": 114594,
  "think": 27963,
  "nist": 65859,
  "ĠOverride": 39358,
  "\\Security": 58492,
  "ĠVuex": 89439,
  "braska": 34888,
  "ĠíĽ": 116231,
  "ĠÏĥÏĦÏģÎ±ÏĦÎ·Î³Î¹ÎºÎŃÏĤ": 136417,
  "ĠÎ¾ÎŃÏģÎµÏĦÎµ": 138931,
  "UIAlert": 38282,
  "ï¼ĮåĪĻ": 96153,
  "ckeditor": 63424,
  "ĠÎµÏĢÎ¹ÏĢÏĦÏİÏĥÎµÎ¹ÏĤ": 130883,
  "Ġabb": 30195,
  ".setError": 53481,
  "ĠngÆ°á»Ŀi": 100524,
  "_HPP": 20570,
  "Ä±kl": 91166,
  ".offsetTop": 96398,
  "ĠANC": 86114,
  "ĠÏĢÎ±ÏģÎŃÎ±": 135625,
  "âĪĨ": 140912,
  "ĠØ´ÙħØ§ÙĦÛĮ": 118208,
  "piar": 57626,
  "jm": 67039,
  "Ġklid": 119674,
  "âĢĻT": 86601,
  "ĠÑĥÐ´Ð¸Ð²": 126371,
  "ĠRoo": 67814,
  "ĠÑģÑĸÐ»ÑĮ": 110488,
  "Ġgangs": 55223,
  "ãĥĭãĥ¼": 117383,
  "(',');Ċ": 61271,
  "-results": 65870,
  "(lista": 53897,
  "ĠØ§ÙĤØªØµØ§Ø¯": 116702,
  "Never": 27247,
  "Ġindx": 72195,
  "Ġbasketball": 19794,
  "ĠEditorial": 66233,
  "ĠÎĳÎ»Î²Î±Î½Î¯Î±": 143263,
  "ĠyayÄ±m": 116432,
  "Ġgrim": 44517,
  ".UPDATE": 66473,
  "_kernel": 27974,
  "Ġretry": 23515,
  "lands": 8329,
  "Î¼Î¯Î½": 141547,
  "ĠÎľÎ¬": 118010,
  "INCREMENT": 78798,
  "ĠCONNECTION": 24966,
  "Î»ÎµÎ³": 129876,
  "iley": 18280,
  "ĉopt": 65938,
  "ÐµÐºÐ¾ÑĤÐ¾ÑĢ": 126604,
  "130": 5894,
  "applications": 83553,
  "ĠdÃ¼zenlem": 121700,
  "UF": 21180,
  "Skeleton": 78668,
  "ĉdelete": 15991,
  "bard": 67019,
  "ĠDiss": 52132,
  "Ġxb": 57032,
  "Ġè¿ŀ": 123116,
  "Ġnotices": 35871,
  "ĠcreatedBy": 84873,
  "Ġxáº£y": 112545,
  "_wifi": 72595,
  "dou": 114541,
  "ĠØ¬ÙĦ": 113183,
  "ĠØ¨Ø²Ø±": 104777,
  "pat": 4781,
  "ĠÐ´ÐµÑĤ": 102850,
  "Ġmove": 3351,
  "ĠÎ¼Î¿Î½ÏĦÎŃ": 128790,
  "piece": 23164,
  ".getBy": 52679,
  "Ġpropor": 72008,
  "-commerce": 42685,
  ".findOne": 21554,
  "Ġĉĉĉ": 22998,
  "ĠìĻ¸": 103807,
  "ĠÎ±Î»ÏħÏĥ": 131531,
  "ĠkarÅŁÄ±lÄ±k": 124621,
  "Ġov": 25568,
  "Ġsnapping": 80889,
  "ĠÎ²Î¿Î¼Î²Î±ÏģÎ´": 140813,
  "Serialized": 78621,
  "Ð»Ñĭ": 105792,
  "æĢĢ": 114280,
  "Â¤Â¤": 123037,
  "ÑİÑĢ": 118206,
  "ĠÑģÐ»ÑĥÑĩÐ°ÑıÑħ": 115183,
  ".mvc": 61467,
  "ĠUpper": 31714,
  "TextLabel": 97730,
  "Ġlineup": 28612,
  "ĉback": 78546,
  "Ġaliases": 41486,
  "Ġerotisk": 40088,
  "ĠVector": 4290,
  "Î¼Î¹Î½Î¬": 137952,
  "725": 23309,
  "ĠgelmiÅŁ": 126155,
  "Ġqueued": 58263,
  "Ġnurse": 29198,
  "Ġgratuite": 48409,
  "ĠÐ²Ð·Ð³Ð»ÑıÐ´": 121425,
  "/rules": 96589,
  "ĠÎ¯Î´ÏģÏħ": 131422,
  "(vs": 79282,
  "Î±Î½Î±ÏĦÎ¿Î»": 133677,
  "Ġbackbone": 56527,
  "Ġprofiling": 56186,
  "VOID": 25019,
  "Unlike": 44179,
  "Ġ==Ċ": 48861,
  "ãĥĭï¾Ĩ": 126786,
  "ĠNetwork": 8304,
  "Ð¾Ñİ": 100655,
  "Ġdotted": 59201,
  "Ġcomposing": 76978,
  "ventional": 44322,
  "checked": 7702,
  "Ġeq": 9116,
  "Ġhomeland": 56336,
  "/full": 64075,
  "\";\"": 106838,
  "Ġbullshit": 52401,
  "ĉthis": 2090,
  "123": 4513,
  "cost": 16845,
  "buffers": 61533,
  "ĠDestiny": 51497,
  "Ġpom": 30584,
  "ĠÏĥÏĩÎ¿Î»Î¹ÎºÎŃÏĤ": 141414,
  "ĠÙĩØ§ÛĮ": 100710,
  "ĠHow": 2650,
  ".rs": 26721,
  "åľ¨çº¿è§Ĥçľĭ": 111237,
  "Ġprincipalmente": 95437,
  "ĠUPS": 58146,
  "Ġä½ı": 118942,
  ":::": 101060,
  "alphabet": 90553,
  "âĺħ": 27347,
  "ĠÎłÎ¿Î»Î¹ÏĦÎ¹Ïĥ": 137777,
  "ĠÎºÏĦÎ·Î½Î¿ÏĦÏģÏĮÏĨÎ¿Î¹": 139805,
  "Ġilleg": 30067,
  "amation": 27279,
  "(factor": 96399,
  "ÏĦÎ¹ÏĥÎ¼": 131554,
  "adele": 116579,
  "à¥ĭà¤¡": 102243,
  "ĴĮ": 27350,
  "UNICATION": 99132,
  "çĽĳçĿ£": 125767,
  "ĠÑģÐ¿": 84714,
  "Ġgchar": 39861,
  "ĠÐ·ÐµÐ»": 119327,
  "ENCH": 65933,
  "Ini": 44425,
  "ĠÎłÎ±ÏģÎ±ÏĦÎ·": 139884,
  "Ġicon": 4706,
  "ildren": 115634,
  "ĉsearch": 46673,
  "Alarm": 44544,
  "Ġloving": 21955,
  "ĠìĬ¤": 101266,
  "âĢĿĊĊ": 7663,
  "Certificate": 34302,
  "ÑģÑĤÐ¸Ñĩ": 111786,
  "ÏģÎŃÏĤ": 128852,
  "ĉrs": 42331,
  "ĠÎĮÎ»Î±": 133925,
  "ĠProvided": 54974,
  "_package": 27425,
  "ĠØ¯Ø§ÙĨØ´Ø¬ÙĪÛĮ": 126134,
  "Ġè¯´": 127310,
  "à¸µà¹Ģà¸¡": 120409,
  "ĠBundes": 47407,
  "ĠÏĥÎ¬": 135213,
  "-cost": 41238,
  "Î»Î»Î·Î»Î±": 128324,
  "Flip": 47908,
  "Ġbroadly": 44029,
  "Ġpixmap": 85451,
  "ĠLarge": 20902,
  ".ajax": 45686,
  "ĠAuthority": 22677,
  "/id": 39246,
  "ĠFlavor": 66099,
  "webdriver": 96577,
  "ÐºÐ°Ñı": 101380,
  ".Graph": 41337,
  "ĠHunting": 45354,
  "(read": 26865,
  ":.:.:": 108601,
  "ÏĥÎ±ÏĨ": 140960,
  "ĠINTERNAL": 73755,
  "finger": 80216,
  ".Re": 2887,
  "elere": 109417,
  "iage": 65540,
  "ĠÎ´ÏħÎ½Î¬": 128850,
  "Ġcried": 39169,
  ".removeClass": 36465,
  "ĠÎ±ÏĢÏĮÎ²Î»Î·ÏĦÎ±": 143668,
  "ÎºÎ¿Î»Î»Î±": 142507,
  "zdy": 124388,
  "ĠÎ¸Î¬Î½Î±ÏĦÎ¿Î¹": 139186,
  "ieme": 89130,
  "Ġscissors": 72724,
  "Ġkles": 126288,
  "èŃ°": 104760,
  "sep": 29136,
  "ĠObs": 51541,
  "ĠPlanner": 75865,
  "Ġcomputes": 58303,
  ":semicolon": 47817,
  "Ġ\"\";ĊĊ": 21932,
  "wait": 11748,
  "(Default": 88974,
  "?\")Ċ": 71928,
  "Ġnoticing": 62464,
  "IGENCE": 28852,
  "Ġaber": 19649,
  "Ġ><?": 87252,
  "ĠÎ®Î¼Î±ÏĥÏĦÎ±Î½": 142466,
  "ÏģÎ¿ÏħÏĤ": 128083,
  "Ġcuts": 15455,
  "ĠÑħÐ¾Ñĩ": 104234,
  "Ġà¤ħà¤Ń": 103895,
  "cream": 47100,
  "_wrap": 39650,
  "Wh": 1671,
  "åľ°åĿĢ": 47577,
  "tie": 49831,
  "ãģıãģª": 115737,
  "*size": 81931,
  "ElementsBy": 54361,
  ")+\"": 28606,
  ".prompt": 66499,
  "Ġscaffold": 85552,
  "Ġ'':Ċ": 49215,
  "vik": 44181,
  "ÑĨÐµÐ¿": 105361,
  "ĠØ§Ø³ØªØ§Ø¯": 121375,
  "Ġassistir": 89615,
  "Ġfrustrated": 33630,
  "ĠResourceBundle": 96461,
  "Î¯ÏĦÏĥÎ±": 136166,
  "re": 265,
  "Ġafirm": 86538,
  "Î³ÏģÎ±ÏĨÎ¹ÎºÎŃÏĤ": 138116,
  "Ġtzv": 118775,
  "Ġwandered": 82294,
  "Î´ÎµÏģ": 135470,
  ".logging": 16981,
  "ĉColor": 58914,
  "Ġð": 109697,
  "ĠÎºÎ±Î»ÎµÎ¯": 134468,
  "ĠÎ»ÎµÎ¼ÏĨ": 139502,
  "ĠKelvin": 92073,
  "isActive": 32914,
  "ĉlet": 10428,
  "_should": 44478,
  "ĠëĪĪ": 105195,
  "ĠCreation": 35386,
  ".nextDouble": 68135,
  "ĠÐ¸Ð¼ÐµÑĤÑĮ": 118415,
  "ĠÑĢÐµÑģÑĥÑĢ": 111871,
  "**/Ċ": 32829,
  "-sizing": 61451,
  "/antlr": 70730,
  "ÎłÎ±ÏģÎ¬": 133874,
  "à¹ĩà¸Ļà¸ķ": 110639,
  "roman": 63114,
  "ĠTurk": 21187,
  "Ø§ØŃÙĦ": 115268,
  "/categories": 77030,
  "pdb": 85302,
  "[token": 88346,
  "Ġworsening": 93405,
  "Ġctr": 51738,
  ".Black": 29929,
  "ĠCAS": 42890,
  "porate": 61721,
  "ĠÑģÑĤÐ¾Ð»": 105980,
  "Ġspam": 26396,
  "Ġtheorem": 58917,
  "ĠØªØ§Ø±ÛĮØ®ÛĮ": 121938,
  "-Aug": 62735,
  "æ¬§ç¾İ": 115688,
  "Ġdiscre": 35038,
  "_every": 65148,
  "ĠÐ´ÑĸÑıÐ»ÑĮÐ½Ð¾ÑģÑĤÑĸ": 108747,
  "Ġthreaten": 40250,
  "(listener": 41710,
  "Î¾": 100607,
  "ĠSÄ±": 122769,
  "ĠUnary": 88051,
  "ĠØ¨Ø§Ø¨": 112275,
  "uples": 29423,
  "Ãºmer": 22334,
  "Ð¼Ð¸Ð½Ð¸": 110493,
  "éį": 112258,
  "æĢĿèĢĥ": 125456,
  "ĠÙģØ£": 122832,
  "_requested": 73809,
  "Ġthrew": 22982,
  "calcul": 81730,
  "ĠÐ¿Ð¾Ð´Ð°": 118857,
  "});ĊĊĊĊ": 79237,
  "Ġthrill": 54904,
  "ĠtÄĽlo": 122067,
  "ÎķÎ¼ÎµÎ¯ÏĤ": 138337,
  "UPLE": 89915,
  "Branch": 18697,
  "ĠÎ´Î¹Î¬ÏģÎºÎµÎ¹Î±ÏĤ": 133641,
  "Ġng": 7933,
  ",Yes": 98171,
  "ĠPremiere": 69924,
  "Ġnf": 43228,
  "ĠÎĶÎĹÎľ": 122565,
  "ĠEx": 1398,
  "Brandon": 94857,
  "ĠÎ¼ÎµÎ¹": 128224,
  "_consumer": 75069,
  "ĠHag": 67639,
  "='',Ċ": 97783,
  "ĠÎĻÎ´ÏģÏį": 136401,
  "Î£Î±ÏĤ": 139901,
  ".minLength": 97040,
  "Ġsamo": 83478,
  "Ø¬Ø²": 111566,
  "antor": 89267,
  "Ġml": 16116,
  "ìĬ¤ë¡ľ": 124983,
  "à¸±à¸ļà¸Ĺ": 110419,
  "notify": 22714,
  "Ġaccustomed": 53184,
  "ĠtÃ©m": 105287,
  "Ġ*,": 12039,
  "contin": 22025,
  "';Ċ": 1025,
  "akistan": 70393,
  "-turn": 65051,
  "ĠÏĥÏĦÏģÎ±ÏĦÎ·Î³Î¹ÎºÎ®ÏĤ": 134782,
  "Ġ)))": 100052,
  "èĵĿ": 115427,
  "ĠÎ±ÏĥÏĦÎ¹ÎºÎ®ÏĤ": 142680,
  ".system": 16315,
  "ĠÎ±Î½ÏĦÎ¹ÏĢÏģÎ¿ÏĥÏīÏĢÎµÏħ": 137137,
  ">((": 48553,
  "Ġplaces": 7634,
  "Ġpunish": 32151,
  "\">&": 13670,
  "uty": 20850,
  "_band": 46444,
  "âĢĮÚ¯Ø°": 118023,
  ".Operator": 86646,
  "Ġinteractive": 21416,
  "ĠÎłÏģÎ¿ÏĥÏĦÎ±ÏĥÎ¯Î±": 141501,
  "Î±Î¹Î±": 128523,
  "ÏīÏģÎ±": 136589,
  "ĠÐ¿ÑĢÐµÐ´ÐµÐ»": 123367,
  "Emp": 29831,
  "ĠkonkrÃ©t": 118470,
  "oples": 27522,
  "ĠRuf": 99257,
  "ĠUSSR": 73315,
  "ĠÙĨÚ¯ÙĩØ¯": 121708,
  "ĠHaley": 68811,
  "Ġstandby": 72838,
  "ĠÎ¼ÎµÏĦÎ¬Î´Î¿ÏĥÎ·ÏĤ": 138818,
  "Ġongoing": 14529,
  "ĠGaming": 31562,
  "Ġcautious": 46878,
  "subtitle": 41517,
  "ĠÐĵÐµÑĢ": 110735,
  "ĠYA": 79250,
  "ÑĥÐ²Ð°Ð½Ð½Ñĸ": 121416,
  "Ġcloses": 34350,
  "-covered": 84408,
  "_radi": 98579,
  "ä¹Łä¸į": 111333,
  "Senior": 48195,
  "Ġleaking": 52929,
  "ysis": 4548,
  "speed": 20997,
  "ĠQuite": 58795,
  ".*": 5013,
  "Ð»Ð¸Ð½Ð°": 113891,
  "ĠMurphy": 31053,
  "ĠÏĥÏīÎ¼Î±ÏĦÎ¹Î´Î¯ÏīÎ½": 142036,
  ".son": 83605,
  "Ġexercises": 23783,
  "NIC": 46047,
  "Ġinjector": 63743,
  "_SPR": 80200,
  "Ø§Ø´ÛĮÙĨ": 109322,
  ".crypto": 45223,
  "ÏįÎ»Î¿Ïħ": 133502,
  "-ÑĤÐµÑħ": 126883,
  "ĠTricks": 85276,
  ".size": 2546,
  "ĠÏĢÎµÏģÎ¹Î¼ÎŃÎ½Î¿ÏħÎ¼Îµ": 137139,
  "_INET": 27932,
  "ĠInterpreter": 83593,
  "ĠCommunity": 12332,
  "vious": 2528,
  "Ġworkbook": 46255,
  ",,,": 61823,
  "Abs": 28878,
  "_fa": 96964,
  "Ð¸Ð¿Ð»Ð¾Ð¼": 125495,
  "Ġgrote": 44546,
  "Philadelphia": 90524,
  "Ġcinsel": 113988,
  "Ġpursued": 46531,
  "ĉitem": 23140,
  "ĠÏĦÏħÏĢ": 130703,
  "(web": 40869,
  "(android": 46732,
  "ĠcellForRowAt": 83755,
  "ffee": 54225,
  "Ġqualidade": 86983,
  "ĠĉĠĠĠ": 80624,
  "Î»Î¿Î³Î¿ÏĤ": 133337,
  "_EXPORT": 21452,
  "ÏĩÎ¿Î½ÏĦÎ±ÏĤ": 131725,
  "áº¯p": 103968,
  "REET": 57021,
  "å¾Ĵ": 107263,
  "ÏĦÏģÎ¿Ïħ": 129804,
  "ĠEither": 21663,
  "Î»Î®ÏĥÎµÏīÎ½": 135163,
  "Ġgenerado": 80734,
  "ĠÎ´Î±Î½ÎµÎ¯ÏīÎ½": 134362,
  ".generator": 57834,
  "pig": 90600,
  "<E": 24774,
  "Ġimb": 73354,
  "className": 14193,
  "/scripts": 40472,
  "ĠÄįervence": 119654,
  ")();Ċ": 85017,
  "Ġkilometres": 52957,
  "_raw": 16453,
  "ĠÏĦÎ±Î¼ÎµÎ¯Î±": 139118,
  "ĠÎ±Î»Î»Î¬": 108433,
  "Ġcircum": 10408,
  "Î®ÏĥÎµÏĦÎµ": 136479,
  "-backed": 46128,
  "_vectors": 50258,
  "ä½Ĳ": 106150,
  "Ġpublishing": 23763,
  "çµ¦": 110698,
  "Ġjuicy": 56153,
  ".closePath": 99389,
  "(field": 15944,
  "ĠTicket": 29497,
  "ĠUph": 100005,
  "ÏĮÏĦÎµÏģÎ±": 128420,
  "ĠEffects": 30246,
  "Ġèĩ": 59564,
  "Ġnoh": 113947,
  "Ġà¤Ĩà¤¤": 105506,
  "Ġautomation": 33762,
  "ĠÎŃÎºÏģÎ·Î¾Î·": 138873,
  "ĠÎ´Î¹Î±ÏĦÎ±ÏģÎ±ÏĩÎ®": 141211,
  "ÛĮÙĨ": 83355,
  "()],Ċ": 74945,
  "åįķä½į": 76417,
  "Î¯ÏīÏĤ": 129940,
  "ĠInvest": 13038,
  "ĠFinds": 51730,
  "ĠÏĨÎ±Î½ÏĦÎ±ÏĥÎ¯Î±": 140336,
  "_vue": 70247,
  "Ġapolog": 21050,
  "/comments": 49925,
  "Ġsidelines": 70513,
  "ĠÐ²Ð»Ð°Ñģ": 105619,
  ".dylib": 83578,
  "Ġextremes": 69971,
  "âĢĻan": 88161,
  "ĠÐ¿ÑĢÐ¸Ð¼ÐµÐ½Ñı": 111841,
  "Ġlowered": 39920,
  "_started": 56779,
  "ØªÙĩ": 100491,
  "Ġjump": 7940,
  ".multiply": 47533,
  "ĠÐ·ÐµÐ¼Ð»Ñı": 127811,
  "start": 2527,
  "Î®ÏĦÎ·ÏĤ": 143860,
  "ĠĠĠĠĠĠĠĠĠĠĠĠĠĠĠĠĠĠĠĠĠĠĠĠĠĠĠĠĠĠĠĠĠĠĠĠĠĠĠĠĠĠĠĠĠĠĠĠĠĠĠĠĠĠĠĠĠĠĠĠĠĠĠĠĠĠĠĠĠĠĠĠĠĠĠ": 14984,
  "Spark": 68583,
  "Ð»ÑĸÐ²": 112658,
  "ĠMeadow": 89842,
  "é£Łåĵģ": 119008,
  "ĠÏĥÏħÏĥÎºÎµÏħ": 129610,
  "ĠChattanooga": 97943,
  "ĉstop": 63744,
  "ĠÑĢÐµÐºÐ¾Ð¼ÐµÐ½Ð´Ð°": 119692,
  "Ġìłķë¶Ģ": 118951,
  "Ġ'.$": 16185,
  "<Car": 93437,
  "ĠÎĺÏģÎ¬ÎºÎ·": 138538,
  "boundary": 66280,
  "à¥ĩà¤Ĥ": 100271,
  "-admin": 28324,
  "xious": 30351,
  "Ġiff": 52208,
  "ĠÏĮÎ¼Î¿ÏģÏĨÎ¿": 142059,
  "IX": 5511,
  "Ġrip": 24169,
  "ĠæĿ¡": 125263,
  "_arm": 35780,
  "ĠdobrÃ©": 122337,
  "Ġvalida": 92787,
  "ĠÙħØ¹ÙħÙĪÙĦ": 114150,
  "ĠÎ¬Î½ÏĦÏģÎ±ÏĤ": 139890,
  "phasis": 55249,
  "ĠÎµÏĥÏīÏĦÎµÏģ": 128685,
  "Ġcompeted": 67235,
  "ĠÏĦÎ¿ÏĢÎ¿Î¸ÎµÏĦÎ·Î¸ÎµÎ¯": 139816,
  "ĠBáº£o": 116673,
  "Ġdok": 42161,
  "Ġremote": 8870,
  "migration": 81327,
  "ĠĠĠĠĠĠĠĠĠĠĠĠĠĠĠĠĠĠĠĠĠĠĠĠĠĠĠĠĠĠĠĠĠĠĠĠĠĠĠĠĠĠĠĠĠĠĠĠĠĠĠĠ": 25343,
  "_KEY": 6738,
  "Ġregulator": 40704,
  "ĠÎ´Î·Î¼Î¿ÏĥÎ¹Î¿Î½Î¿Î¼": 131958,
  ".imshow": 30186,
  "08": 2318,
  "jmu": 122797,
  "Ġstar": 6917,
  "Ã¡vky": 118064,
  "ĠroleId": 70745,
  "ÑĢÐµÐ´Ð¸": 116568,
  "Ġembroidery": 85927,
  "..Ċ": 35047,
  "ĠPond": 71965,
  "ĠShooting": 61881,
  "Ġtowers": 40825,
  "(state": 8556,
  "ĠæĶ¯": 120436,
  "ĠÎ¤ÏģÎ¬": 130299,
  "ĠÏĢÎ±Î³ÎºÏĮÏĥÎ¼": 129278,
  "ĠÏĥÏħÎ¼Î²ÏĮÎ»": 141835,
  "ãĤĵãģª": 103171,
  "Ġpathogens": 78284,
  "yect": 24420,
  "ÙĪØ§Ø±Ùĩ": 113126,
  "ĠÎµÏĢÎ±ÏģÎºÎ®": 141465,
  "ÏĮÏĢÎ¿Ïħ": 141119,
  "(PropertyName": 91029,
  "ĉsort": 40587,
  "ĠOSD": 94622,
  "...]": 62499,
  "ÎľÎ¿": 143919,
  "postal": 34270,
  "(Resources": 70366,
  ".assignment": 83823,
  "Ġbrute": 65198,
  "ĠÐ¿Ð¸Ñī": 121261,
  "ĠSuarez": 94763,
  "ĠPatterns": 63823,
  "íİĺìĿ´ì§Ģ": 118026,
  "Î²Î»Î·Î¸Î¿ÏįÎ½": 138968,
  "ĠÏĥÏħÎ½Î®": 129095,
  "poser": 20672,
  ");čĊ": 741,
  "ĉĉĠĠĊ": 68764,
  "à¹īà¸Ńà¸ĩà¸ģ": 114123,
  "rahim": 124165,
  "ĠÎ¼Ïħ": 128627,
  "ĠÎºÎ¿Î½Î´Ïį": 137899,
  "_rot": 39356,
  "]=\"": 24764,
  "Ġoverhe": 72389,
  "ĠActionBar": 80193,
  "itemId": 55482,
  "Ġlign": 72700,
  "(env": 17409,
  "Ġfayd": 112702,
  "\"}": 9388,
  "ĠVol": 11119,
  "ĠÄ°ng": 107135,
  "ĠcurrentState": 58978,
  "_CODES": 42788,
  "ĠÎ¼ÎŃÏģÎµÎ¹": 139025,
  "/css": 6851,
  "ĠÎµÎ½Î¹ÏĥÏĩÏįÎµÎ¹": 140086,
  "Ø³ØªØ§ÙĨ": 101516,
  "ĠCommod": 79280,
  "ĠHannah": 48361,
  "Ġ((!": 45924,
  "ÂłkW": 117427,
  "readcrumbs": 25473,
  "Î·Î³": 111638,
  "panied": 22840,
  "iÄįky": 123812,
  "ĠUL": 22931,
  "ÏĦÎ±ÏģÎ±": 139269,
  "Ġnegligible": 82802,
  "ĠÎľÎł": 139384,
  ".mob": 96683,
  "ĠNath": 61909,
  "ours": 2530,
  "ĠZahl": 83845,
  "Î¾Î¹Î¼Î¿": 138692,
  "Ġmethane": 61083,
  "ÙĦØ·": 120334,
  "à¸´à¸łà¸²à¸ŀ": 126676,
  "Ø¨ÙĪ": 102694,
  "Ġtcp": 29151,
  "Ġtau": 32923,
  "ÑĢÐ¸Ñı": 111731,
  "Eigen": 72840,
  "Sou": 58532,
  ".dropout": 61364,
  "Ġburned": 27724,
  "fra": 43389,
  "ĠØ§ÛĮÙĨØªØ±ÙĨØªÛĮ": 122191,
  "ĠÎ±Î½Î±ÏĥÏĨ": 137418,
  "Ġcaregiver": 93561,
  "æĸĹ": 106112,
  "ĠBlackBerry": 64528,
  "paging": 73846,
  "Ġná»ĳi": 109035,
  "Ġhass": 37504,
  "âĨĲ": 72958,
  "ĠpodmÃŃnek": 125711,
  "_INT": 9340,
  ".comm": 34481,
  "*>::": 52559,
  "ÂłÂłÂłÂłÂłÂłÂłÂł": 46549,
  "ĠoranÄ±": 118473,
  "imension": 18658,
  "ntag": 96005,
  "regar": 34830,
  "Prop": 2051,
  "better": 58234,
  "ĠderniÃ¨re": 88818,
  "\\CMS": 71756,
  "Ġsession": 3882,
  "Ġdequeue": 84973,
  "Ġsibling": 45323,
  ".getId": 11121,
  "Ġ'..": 46221,
  "ĠOps": 56258,
  "Ġshocked": 27718,
  ".OnClickListener": 15811,
  "å°İ": 106839,
  "ĠÎļÏħÏģÎ¹Î±ÎºÎ¬ÏĦÎ¹ÎºÎ·": 142734,
  "åħ¬åĳĬ": 114969,
  "(vars": 74562,
  "ĠprÅ¯": 104667,
  "XH": 119540,
  "Â».": 75608,
  "!!!!": 17523,
  "å¤§éĩı": 122333,
  "thed": 79371,
  "Ġcourse": 3388,
  "vine": 62301,
  "_site": 25521,
  "ä¸ĢåĪĩ": 121019,
  "Î´Î®": 109991,
  "Ġtá»©c": 110939,
  "-special": 93348,
  "íħĶ": 106674,
  "ValueType": 61997,
  "Ġstm": 56358,
  "acion": 5928,
  "Ġropes": 65046,
  "Ġsharpen": 57463,
  "Sal": 17691,
  "Ġvw": 75186,
  "ĠSaw": 38107,
  "Ð¿Ð°": 106286,
  "ledi": 104181,
  ".elapsed": 78582,
  "ĠSTYLE": 64047,
  "uger": 59520,
  "Ws": 75833,
  "licate": 49895,
  "_TRNS": 93805,
  "ĠMeanwhile": 26982,
  "/ec": 74158,
  "ÏĨÎµÏģÎ±Î½": 130332,
  "Ġeduc": 4834,
  "humidity": 94146,
  "Ġdonc": 39587,
  "ĠÏĨÎµÏĥÏĦÎ¹Î²Î¬Î»": 135187,
  "ĉanim": 94602,
  ".Base": 13316,
  "Ġashes": 67101,
  "Ġstalking": 82895,
  "Ġperforms": 27772,
  "ĠkÃŃnh": 112134,
  "atsu": 51843,
  "ĠENC": 73362,
  "ĉalign": 75151,
  "ddf": 97582,
  "Î»Î¿Î³Î¯Î±ÏĤ": 129105,
  "<\\/": 83954,
  "685": 23717,
  "ĠÎ¸ÎµÎ±ÏĦÎŃÏĤ": 139771,
  "_lang": 18358,
  "atars": 44958,
  "ovÃ¡n": 102355,
  "===========Ċ": 59545,
  "udent": 4986,
  "Csv": 95926,
  "Ġmerkezi": 116627,
  "Ġparticul": 54008,
  "Ġthá»Ŀ": 123837,
  "))/(": 68095,
  ".getElementsByName": 94684,
  "CCA": 95407,
  "ĠpoÄį": 106803,
  "_CREATE": 26908,
  "ĠvrÃ¡t": 110779,
  "Ġbeside": 30488,
  "ĠÙĪÙĦÙĥ": 111257,
  "Opacity": 15968,
  "ello": 4896,
  "FOUND": 59947,
  "-to": 4791,
  ".youtube": 20751,
  "ĠRivera": 64210,
  "usz": 70491,
  "Ġsetters": 81942,
  "cac": 84210,
  "ĠÐĲÐ»ÐµÐºÑģÐ°Ð½Ð´": 112155,
  "Ġcontradict": 43561,
  "Ġ*/čĊčĊčĊ": 88542,
  "setEnabled": 38209,
  "(theta": 29078,
  "ĠCharlottesville": 64738,
  "ĠuserID": 36304,
  "-plane": 90649,
  "(choice": 57491,
  "Ġparty": 4717,
  ");?>Ċ": 63522,
  "ĠPatients": 44430,
  "à¹Ĵ": 117013,
  "ĠÎĳÎ½ÏĦÏİÎ½Î·": 141817,
  ".directive": 64740,
  "ĠSparks": 94894,
  "dom": 5717,
  "ĠÎµÎ»ÎµÏħÎ¸ÎµÏģ": 130892,
  "ĠpoloÅ¾": 108413,
  "'er": 94678,
  "-ending": 67897,
  "Î³ÎºÏħ": 133251,
  "ÏĢÎ¿Ïģ": 131495,
  "ĠChest": 42871,
  "Ú©ÙĨØ§ÙĨ": 122969,
  "nÄĽte": 117394,
  "à¸²à¸ķ": 101566,
  "Ġframing": 59049,
  "uÅ¾el": 127747,
  "Ġ()->": 79938,
  "ĠØ£ÙĪ": 102010,
  "Ġï¾": 101583,
  "Ġoptical": 29393,
  "ÏĨÎŃÏģÎµÎ¹ÎµÏĤ": 136886,
  "ĠOSS": 84333,
  "ĠÎļÎµÎ½ÏĦÏģ": 130921,
  "Ġviv": 18434,
  "ĠÏĥÏħÎ½ÎµÏģÎ³Î±ÏĥÏĦÎµÎ¯": 142815,
  "Âłp": 102988,
  ".Formatting": 42011,
  "ĠdÆ°á»Ľi": 104837,
  "Ð»Ð°Ð²Ð°": 115120,
  "Ġtv": 11333,
  "[field": 39740,
  "cciones": 55803,
  "Ġsighed": 53914,
  "ĠScrew": 73275,
  "ĠÎ±Î³ÏīÎ½Î¹ÏĥÏĦÎ¹ÎºÎ®": 136284,
  "Ġnel": 25334,
  "hill": 28607,
  "Ġpickups": 93138,
  "iac": 18029,
  "ĠlanÃ§": 97069,
  "Commercial": 60816,
  "tour": 52439,
  "ĠCalc": 35315,
  "owner": 8281,
  "ias": 3557,
  "ĠÎ±Î¼Î¿Î¹Î²Î±": 134718,
  "Ġguru": 60526,
  "Ġquantify": 76498,
  "conda": 64853,
  "SOR": 40642,
  "ãĢĤĊĊ": 3490,
  "queda": 42460,
  "405": 16408,
  "ĠÎ´Î¹Î±ÏĢÏģÎ±Î³Î¼Î±": 130947,
  "Ġcommitted": 11411,
  "Ġtá»ĳ": 106085,
  "urtle": 22492,
  "Ġtears": 24014,
  "ÏĦÎ®ÏĥÎ±Î¼Îµ": 137642,
  ",max": 35951,
  "ĠÎŁÎ´Î·Î³Î¯Î±": 142172,
  "Ġê·¸ëĥ¥": 121895,
  "åĨĨ": 35757,
  "ĠFeedback": 37957,
  "ĉyield": 46191,
  "_CAPACITY": 93253,
  "oints": 14737,
  "Ġà¹Ĥà¸Ľà¸£": 119570,
  "fires": 56171,
  "Ġacquaint": 54627,
  "VD": 12757,
  "Ġspec": 1424,
  ".Redirect": 39969,
  "ĠStrategies": 56619,
  "emek": 105820,
  "(resource": 24517,
  "ĠConfidence": 87424,
  "ĠCyc": 82081,
  "ĠÐ°Ð±Ð¾": 101669,
  "Ġpong": 78722,
  "Ġsliding": 34932,
  "ëłī": 117689,
  "ĠMuslims": 20071,
  "åı²": 102512,
  "awa": 14406,
  "Ġevrop": 118311,
  "Ġmutations": 34684,
  "picker": 15213,
  "Ġshook": 36014,
  "ĠØ²ÙĨØ¯Ú¯ÛĮ": 107532,
  "pace": 1330,
  "ĠTypeface": 96284,
  "ĠìĪĺìĥģ": 121218,
  "ãĤĵ": 25827,
  "ĠÎķÏĢÎ¹Î¸Îµ": 142755,
  ".start": 5069,
  "iday": 49978,
  "ä¿º": 105464,
  "/desktop": 98679,
  "llvm": 30142,
  "Ġtty": 61167,
  "ĠÎ¼ÏĢÎ»ÏĮ": 143863,
  "à¸ŀà¸¢à¸²à¸ļà¸²à¸¥": 127015,
  "ĠÎĴÎµÏģÎ¿": 134437,
  "Ġbonuses": 33321,
  "ĠSpringer": 67915,
  "ednou": 123211,
  "à¸Īà¸²à¸ģà¸ģà¸²à¸£": 121263,
  "Dir": 6315,
  "ojis": 84528,
  "Ġthá»§y": 109918,
  "_boundary": 55104,
  "|$": 81150,
  "å¦": 100525,
  "Ġorphan": 13036,
  "recognized": 47167,
  "istung": 84314,
  "-management": 55885,
  ".cookies": 66398,
  "ATORY": 88358,
  "bole": 61175,
  "ĠÐ³ÑĢÑĥÐ½": 116160,
  "AMAGE": 57373,
  "ĠCombine": 47912,
  "Ġtb": 16767,
  "ĠÐ¿Ð¾Ð´ÑħÐ¾Ð´": 113504,
  "SION": 12480,
  "Eliminar": 53758,
  "igator": 58182,
  "ovÃ¡": 100779,
  ".compiler": 64890,
  "Ġ\\čĊ": 22411,
  "acos": 42747,
  "iá»ģ": 100373,
  "(\"=\"": 67477,
  "ĠAzerbai": 65423,
  "Ð°Ð½Ð¾Ð²": 100745,
  "ĠÎ´Î¹Î¿ÏģÎ³Î±Î½": 131716,
  "ĠÎ´Î¹Îº": 122330,
  "(reg": 18897,
  "ĠsvÄĽt": 103388,
  "-sensitive": 57767,
  "nickname": 40513,
  "ìłĿ": 122899,
  "Î»Î¹Î¬ÏĤ": 133010,
  "ĠÑĤÐ¾Ð±ÑĤÐ¾": 121295,
  "ĠArrest": 72417,
  "_DIFF": 55084,
  "//\"": 78315,
  "-elect": 37081,
  "ĠÑģÐ¸Ð»ÑĮÐ½Ð¾": 116300,
  "ĠØ£ÙĥØ«Ø±": 109879,
  "Ġneuron": 49384,
  "=\\\"\";Ċ": 92083,
  "Ġeman": 69239,
  ".Public": 50239,
  ".\")ĊĊ": 32325,
  "Ġquen": 118812,
  "Ð¾ÑĢÑıÐ´": 108594,
  "ì¤": 59269,
  "Ð°ÐºÑģÐ¸Ð¼": 106695,
  "Ã¦re": 92116,
  "ĠSeverity": 52239,
  "ĠGoat": 93872,
  "/ĊĊĊ": 76358,
  "QueryBuilder": 52500,
  ":focus": 89458,
  "çĵ¶": 118977,
  "Î²Î¿Î»Î®": 123319,
  "ĠÑĤÐ¾Ð»": 109722,
  "ĠConstructor": 17204,
  "ping": 10194,
  "Ġcomer": 91427,
  ".biz": 53708,
  "undra": 79830,
  "Ġcontroller": 6597,
  "(pwd": 98987,
  "ĠdeÄŁiÅŁik": 108564,
  "iatric": 23336,
  "----------ĊĊ": 69403,
  "_ok": 20404,
  "ÏĮÎ½Î¹Î¿": 139177,
  "glyph": 66581,
  "ĠØ§Ø°": 122718,
  ".skill": 65234,
  "Ġpari": 68082,
  "_Float": 90167,
  "Oil": 78009,
  "670": 21218,
  "ĠAF": 20479,
  "ĠGeographic": 66542,
  "pects": 8132,
  "Ġdecimal": 12395,
  "(ex": 5580,
  "ï¼ĽĊ": 60317,
  "âĢĶhe": 76929,
  "Ġcert": 2847,
  "Allocator": 43830,
  ".FloatField": 75798,
  "adena": 45447,
  "ĠÏĥÏħÎ¼Î²Î¿Î»": 130270,
  "Î¬ÎºÎ·": 131916,
  "523": 21123,
  "ĠMAIL": 76484,
  "ÏĦÎ¯ÏĥÎµÎ¹ÏĤ": 141048,
  "Ġadm": 14933,
  "Ġhealthcare": 18985,
  "ĠRough": 58421,
  "ĠÎ±Î¼ÎŃ": 143470,
  "(units": 84165,
  "åħħ": 105843,
  "Ġavoiding": 31526,
  "ĠÎ±ÎºÏħ": 132538,
  "_used": 28903,
  "fts": 45544,
  "Ġett": 27822,
  "âŁ": 35729,
  "ĠSavannah": 73176,
  "ĠErie": 79587,
  "Î¾Î¹ÎºÏĮ": 138304,
  "×©": 59511,
  "ORIZ": 25710,
  ".escape": 58181,
  "covered": 21468,
  "ÏĦÎ¹Î½Î¿Ïį": 134101,
  "Ġdisponibles": 70720,
  "Ġconnexion": 73876,
  "ÏĥÎºÎ¹": 133304,
  "âĢĻnun": 113600,
  "Ġæ°´": 107732,
  "Ġestos": 45886,
  "ĉclear": 41508,
  "_org": 36683,
  "äººãģĮ": 114754,
  "ĠMG": 52292,
  "_ITER": 52447,
  "MO": 10754,
  "946": 26491,
  "Ġoutlining": 79774,
  ">(": 2284,
  "ubernetes": 30927,
  "_:*": 79693,
  "Ġmetallic": 46258,
  "HomeAs": 90737,
  "(source": 12719,
  ".BadRequest": 54892,
  "];ĊĊĊ": 53699,
  "annual": 64709,
  "339": 17887,
  "Î®ÏĥÎ±Î¼Îµ": 141707,
  "ĠCNC": 60797,
  "Ġsucht": 41516,
  "Î¼ÎŃÏģÎ±": 134669,
  "sequent": 72457,
  "Ġidols": 90861,
  "585": 21535,
  "âĢĶâĢĶâĢĶâĢĶ": 16620,
  "Ġattractiveness": 100045,
  "Ġbins": 29618,
  "ĠVA": 21571,
  "è³£": 126735,
  "ÎµÏģÎ¼Î¿ÎºÏģÎ±ÏĥÎ¯Î±": 135879,
  "å½¼": 103031,
  "iants": 63378,
  "Î»Î±Î½Î´Î¯Î±": 134038,
  "ÃŃd": 87120,
  "ĠPlease": 5321,
  "(':": 16364,
  "celona": 23167,
  "ĠSvens": 87273,
  "ĠÏĥÏħÎ½Î±Î³ÎµÏģ": 141568,
  "ĠÎµÏĢÎ¹ÏĦÏģÎ¿ÏĢÎ®ÏĤ": 133616,
  "Ġtolerant": 74582,
  "Ġsiz": 65996,
  "aments": 24469,
  "Ġfutures": 37923,
  "Ġtroubling": 52329,
  "inate": 3357,
  "tras": 13811,
  "ĠitemType": 89891,
  "Ġlyon": 89530,
  "ĠÎ¼ÎµÎ¹ÏİÎ¸Î·ÎºÎ±Î½": 143618,
  "}]": 26516,
  "Ġquarantine": 71489,
  "ĠÎ±ÏģÎºÎµÏĦÎ¿Î¯": 138896,
  "houses": 37841,
  "modules": 11786,
  "ÐµÐ´Ð¸": 108566,
  "Ġpresent": 3118,
  "skÃ½mi": 123387,
  "Story": 18422,
  "Ġadvocated": 64854,
  "ãĥ¬ãĤ¤": 108748,
  "categories": 15865,
  "*N": 45729,
  ".Unit": 26217,
  "Ġwhispers": 89248,
  "ĠØ®ÙĪØ¨": 112999,
  "ĠÏĨÎ¹Î»Î¿Î¾ÎµÎ½ÎµÎ¯": 143333,
  "Ġbotanical": 98302,
  "ĠGoku": 77136,
  "ĠÐ¼Ñĸ": 100634,
  "åĭ¢": 110095,
  ".JSONObject": 41655,
  "ĠLyme": 94216,
  "Ġsho": 72619,
  "ĠloÃłi": 104676,
  "Yet": 29174,
  "pytest": 27819,
  "ĠÐ¶ÐµÐ½ÑīÐ¸Ð½Ð°": 125350,
  "_PS": 48766,
  "ĠÐľÐ°ÑĢÐ¸": 120024,
  "Ġèĩº": 127835,
  "Ġsokak": 127434,
  "313": 15231,
  "/Index": 89251,
  "ÏĢÎµÏģÎ¹Î¿": 143013,
  "Î¼ÎµÏĦÏģ": 131076,
  "Widget": 4651,
  "Ġsebe": 110788,
  "ĠMEMBER": 82924,
  "Ġì´Īê¸°": 96413,
  "ĠÐ¸Ð·Ð¼ÐµÐ½": 71121,
  "_clients": 57999,
  "ĠDelete": 10645,
  "Ġerotische": 23002,
  "Ã¼stÃ¼": 122002,
  "?id": 20970,
  "Ġmeydana": 114518,
  ".getProject": 91709,
  "Î±Î¹Î·": 136880,
  "_class": 4895,
  "productos": 76005,
  "ĠÅ¾al": 112316,
  "ĠRocks": 69131,
  "ĠBinder": 91263,
  "Ġchlap": 121181,
  "_strlen": 45388,
  "Ġfug": 49184,
  "ĠÐ¼ÑĸÑģÑĤÐ°": 113432,
  "ĠUtt": 68062,
  "_IOS": 80359,
  "ĠLoads": 52323,
  "ĠìĽ¹ìĤ¬ìĿ´íĬ¸": 126964,
  "à±": 53898,
  "Ġhilar": 36759,
  "ĠrÃ©al": 59157,
  "ĠLing": 51958,
  "ĠÐµÑīÑĳ": 117305,
  "Ġliá»ģn": 119103,
  "ĠØ¨Øª": 108848,
  "ÙıØ¹": 127640,
  "ĠÎ±Î½ÏĦÎ¹Î´ÏģÎ±": 138950,
  "auction": 80862,
  "ĠCasc": 96106,
  "Î¼ÏĢÎ¿Ïħ": 131881,
  "Ġoxy": 99690,
  "Ø§ÙĩÙĬÙħ": 123089,
  "Ġresponsible": 8647,
  "Ø§Ø¨ÙĤ": 107146,
  "âĶĢ": 14897,
  "Ġwritings": 43422,
  "ĠIhre": 39572,
  "Ġserum": 41529,
  "ĠØ¯Ø±Ø³": 119511,
  "Ġbmp": 44401,
  "Ġfa": 2267,
  "æĺ¯ä¸į": 126957,
  "ĠStir": 65292,
  "Ġvill": 9077,
  "/csv": 93228,
  "ĠTap": 37234,
  "ÎķÎ£": 105801,
  "ISE": 9311,
  "ĠÐ±Ð¾Ð»Ð¸": 119798,
  "ØŃØ§Ø¯": 109690,
  "_leave": 63766,
  "icos": 17038,
  "Ġå¥¥": 124306,
  "ran": 6713,
  "ĠWenn": 45097,
  "ÎłÏİÏĤ": 134794,
  "ÏĨÏį": 129323,
  "-mile": 43276,
  "Ġretrospect": 77653,
  "/C": 11547,
  "Ġnegativity": 93795,
  ".aggregate": 89634,
  "ĠÏĩÎ¿ÏģÎ®Î³Î·ÏĥÎ·ÏĤ": 139695,
  "ĠNag": 30162,
  "utenant": 38357,
  ".examples": 71759,
  "!!Ċ": 51447,
  "\"){": 48289,
  "ĠBone": 46701,
  "66": 2287,
  "ãģĵãĤĵãģ«ãģ¡ãģ¯": 90115,
  "typically": 87184,
  "ĠÎ±ÏģÎ¹Î¸Î¼": 130304,
  "Ġsatellite": 24088,
  "ĠÐºÐ¾ÑĤÐ¾ÑĢÑĭÐ¹": 98851,
  "Î¼Î¿Î½Î®": 130309,
  "ÏģÎµÎ¹Î±": 123793,
  "Ã¡tka": 124972,
  "Ġmarty": 60449,
  "ĠÎķÎ£": 130856,
  "-winning": 27875,
  "Ġhelicopt": 28467,
  "consumer": 47864,
  "ĠSchultz": 67905,
  "æ³ķå¾ĭ": 112424,
  "ĠComputes": 66075,
  "Ġ****************": 47946,
  "isco": 9652,
  "=E": 86334,
  "ĠÎ¿ÏħÏģÎ±Î½ÏĮ": 142643,
  "]|": 30785,
  "ĠåĢ": 107443,
  "ĠÎ±Î»Î»Î¿": 131914,
  "Ġineffective": 55288,
  "ĉcell": 47087,
  "ĠÏĮÎ½Î¿Î¼Î±": 130130,
  "esiyle": 117378,
  "ĠFiji": 86196,
  "ĠaDecoder": 67150,
  "Ġcatalyst": 51483,
  "Ġuniquely": 42329,
  "ĠyÃ¶netim": 111924,
  "Ġweakest": 81863,
  "Ġminimizing": 77391,
  "ĠthuáºŃt": 103981,
  "_UP": 14384,
  "daily": 49174,
  "ĠConstraint": 45364,
  "T": 51,
  ".iOS": 78690,
  "Ġgracias": 67648,
  "ĠTheme": 16847,
  "larla": 104022,
  "ĠEpisodes": 90237,
  "Ġstruggling": 20558,
  "pink": 64349,
  "_Msg": 91753,
  "Ġspectator": 89723,
  "Ġyaz": 79214,
  "ÏĪÎ¯": 141389,
  "ĠÎĴÎµÎ½Î¹Î¶ÎŃÎ»Î¿Ïħ": 142148,
  "éĢ²": 103130,
  "osoph": 11597,
  "Ġcontacto": 68252,
  ")row": 91487,
  ".documentElement": 44640,
  "Ġsupplementation": 73796,
  ".UP": 61837,
  "ãĤ¤ãĥ³ãĤ¿": 124773,
  "Ġeyebrow": 84416,
  "Ġbunk": 46569,
  "ĠìĦľë¹ĦìĬ¤": 110514,
  "ç°¡": 112825,
  "ĠiÃ§eri": 115724,
  "à¸ģà¸£à¸°": 103975,
  "igslist": 50022,
  "ĠÄĳá»ĥ": 80768,
  "Ġgro": 10707,
  "Ġarrested": 12800,
  ".Order": 20240,
  "Ġmagnets": 73780,
  "ÐºÐ¾Ð¼": 101098,
  "838": 24250,
  "Ġcontraceptive": 99390,
  "Ġprostituerte": 51717,
  "æīĭæľº": 59505,
  "ĠÏĩÎ¬ÏģÎ·": 132879,
  "Ġgrandma": 83777,
  "_TEX": 85271,
  "ÏħÏĢÏĮ": 136807,
  "isEnabled": 75552,
  "Ġdossier": 53576,
  "æ¶Īæģ¯": 65305,
  "Hero": 31328,
  "emie": 97246,
  "ildo": 31045,
  "_FILL": 62100,
  "-ar": 58493,
  "ĠÏĥÏħÎ½ÎµÏĩÎ¯ÏĥÎµÎ¹": 133004,
  ")ĊĊĊĊĊ": 65066,
  "Ġrenewables": 89085,
  "ĠTerm": 17978,
  ".hits": 98908,
  "ĠPor": 20388,
  "Ġdairy": 34479,
  "-org": 72284,
  "=\".$_": 97752,
  ".Man": 31002,
  "ĠLIMITED": 13405,
  "ĠÎķÎ»Î»Î¬Î´Î±": 118681,
  ".background": 11979,
  "Twenty": 76896,
  "åĢĻ": 103550,
  "Ġnovel": 11775,
  ".dart": 6943,
  "ussia": 29578,
  "<this": 68584,
  "_drive": 68251,
  "[event": 55899,
  "çī¹åĪ¥": 115612,
  "Ġorganiz": 25286,
  "Scores": 57036,
  "Ġragazze": 48699,
  "ĠØ§ØŃØªÙħ": 118205,
  "inin": 65544,
  "Ã³digo": 33843,
  "ĠÙĪÙĦÙĥÙĨ": 113460,
  "Ġsms": 39029,
  "Ġmatlab": 77101,
  "tility": 12467,
  "ĠÚ©ÙĨÛĮÙħ": 110804,
  "Ġmeaning": 7438,
  "((&___": 55557,
  "Biz": 98581,
  "Ġformulario": 63528,
  "Ġnoun": 38021,
  "å¹¾": 120351,
  "Ð°ÑĤÐ¸Ð²": 104758,
  "Persistence": 72662,
  "ĠCONSTANT": 100151,
  "ÏĥÏĦÎ¬ÏĥÎµÏīÎ½": 130423,
  "ĠWr": 32730,
  "ãĥľ": 103672,
  "Ġbh": 44089,
  "THE": 17673,
  "åº§": 103605,
  "(Post": 69148,
  "Ġachievable": 89253,
  "ĠÙħØ±Ø©": 120643,
  "IBE": 50406,
  "GtkWidget": 92583,
  "ĠÏĢÎ¿ÏĥÎ¿ÏĥÏĦÏĮ": 128614,
  "MM": 8195,
  "Ġce": 3846,
  "_indicator": 59170,
  "ĠØ§Ø³ØªØ®Ø¯Ø§Ùħ": 111294,
  "ĠInstructions": 39397,
  "ĠpÅĻik": 122560,
  "ĠÎ´Î·Î¼Î¿ÏĥÎ¯ÎµÏħÏĥÎµ": 138536,
  "prestashop": 92392,
  "ĠÎµÏĢÎ¹ÏĦÎ±": 132525,
  "ĠMON": 29637,
  "_macros": 87004,
  "Ġwaking": 48728,
  "ĠÐ±ÑĸÐ·Ð½ÐµÑģ": 120638,
  "\\Event": 48129,
  "Ġresponders": 70639,
  "ĠMotor": 18079,
  "altitude": 99111,
  "ĠreÅ¾im": 122458,
  "ĠÎµÏĢÎ¹Î²": 128328,
  "gpu": 43694,
  "calculator": 89921,
  "Ġmelodies": 90113,
  "Ġeps": 18470,
  "Ġvlast": 103116,
  "ĠÏĩÏģÎ·Î¼Î±ÏĦÎ¹": 133872,
  "ÎķÏĢ": 133858,
  "ĠÎ±Î¼Î¹Î³": 143626,
  "Ġindemn": 90108,
  "ĠìĬ¤íĬ¸": 123706,
  "Ġì¶Ķ": 58935,
  "itamin": 76652,
  "ĠInstitut": 96562,
  "ĠÎ±ÏĥÏĦÏħÎ½Î¿Î¼Î¹ÎºÎŃÏĤ": 141852,
  "ĠFRAME": 57516,
  "ĠÎĺÏģÎ·ÏĥÎºÎµÏħ": 140789,
  "à¤¸à¤Ń": 111783,
  "ĉwhen": 61280,
  "ĠÎ¤ÏĥÎ¯ÏĢÏģÎ±ÏĤ": 131924,
  "Ġà¤²à¥ľà¤ķ": 125832,
  "ĠUFC": 28395,
  "Ġreopened": 78881,
  "Ð¿Ð¾Ð²": 101173,
  "ĠÐ¼Ð¾Ð³Ñĥ": 127572,
  "Ġtoplam": 111844,
  "ĠÐĦÐ²": 126538,
  "ĠÎ´ÏħÎ½Î¬Î¼ÎµÎ¹ÏĤ": 130023,
  "elsing": 97688,
  "ĠÑĤÐµÑĢÐ¸ÑĤÐ¾ÑĢ": 108291,
  ".CV": 99319,
  "ĠgetPath": 83840,
  "Ġpunishments": 90925,
  "_SUPPORT": 25278,
  "ĠÏĢÏģÎ±Î³Î¼Î±ÏĦÎ¿ÏĢÎ¿Î¹Î¿ÏįÎ½ÏĦÎ±Î¹": 136169,
  "Ġuniforms": 45233,
  "ì»¬": 121735,
  ")prepareForSegue": 93882,
  "ËĨ": 111968,
  "RESP": 68883,
  "Ġmoisture": 32257,
  "Ġimpossible": 12266,
  "ĠÎºÏħÎ²ÎŃÏģÎ½Î·ÏĥÎ·": 128252,
  "Ø®Ø©": 124492,
  "ĠPublications": 62770,
  "Ġcigar": 54774,
  "resher": 86524,
  "ĠÑĤÑĢÑĥ": 102857,
  "CAP": 32500,
  "Ġnedok": 127855,
  "ĠÎłÎ¿ÏģÏĦÎ¿Î³Î±Î»Î¯Î±": 139109,
  "Ðĺ": 31274,
  "Ġff": 26620,
  "Ġfever": 34653,
  "Ġ'',": 9158,
  "Ġbots": 50629,
  "Ġmav": 59470,
  "ĠÎµÏĥÏĦÎ¹Î¬Î¶ÎµÎ¹": 141282,
  "lld": 33559,
  "ĠTArray": 96373,
  "ÏĮÎ½": 103164,
  "itesi": 116493,
  "ĠKe": 6706,
  "-produced": 84561,
  "ĠÎľÎµÏĥÎ¿": 133348,
  "Ġpis": 63414,
  "OCUS": 67324,
  ".ÎĽ": 141235,
  "ĠÐłÐ¾Ð±": 119659,
  "asia": 36259,
  "ĠØ§ÙĦØ§Ø¬ØªÙħØ§Ø¹": 124133,
  "Ġsickness": 54950,
  "crop": 35247,
  "è³¢": 126053,
  "ĠalÄ±p": 123821,
  "ÎĳÎ½Î±ÏĨÎµÏģ": 142314,
  "Ot": 85895,
  "æłĳ": 110712,
  "âĢĻye": 110396,
  "iii": 35694,
  "Ġdigits": 19016,
  "(\"{": 14303,
  ".special": 64308,
  "aps": 2690,
  "LK": 94063,
  "urniture": 25597,
  "Î³ÏģÎ±ÏĨ": 104339,
  "ĠAvalanche": 99807,
  "iÄįka": 122313,
  "Ø·Ø§Ø±": 118938,
  "EK": 72233,
  "ĠÙĪØ§ÙĦØª": 111369,
  "ilian": 69183,
  "à¹Įà¸Ń": 116290,
  "!âĢĻ": 72434,
  "Ġlegitim": 49297,
  ".io": 4340,
  "ifferences": 59426,
  "_some": 62955,
  "Pane": 8419,
  "ĠMarino": 89366,
  "ĠLogo": 31152,
  "ÏģÎµÏħÎ½Î±": 134666,
  "ĠLets": 58166,
  "Normalized": 80182,
  "\";}Ċ": 66643,
  "Shows": 76175,
  "ĠÐºÐ½Ñı": 116093,
  "ĠLAS": 65231,
  "sense": 98935,
  "cased": 92226,
  "iquement": 81235,
  "ĠFond": 92641,
  ".Navigator": 86731,
  "ĠRegistrar": 81326,
  "hack": 67072,
  "ĠÎŃÏģÎ³Î¿": 128689,
  "Ġhjem": 68085,
  "à¤¾à¤²à¤¤": 117583,
  "');ĊĊ": 3840,
  "Ġìĸ´ëĸ¤": 112700,
  "Ġ#\"": 56150,
  "LEFT": 23203,
  "Ø²Ø±": 102600,
  "Ġlook": 1427,
  "=status": 56218,
  "mmo": 78775,
  "Ġtied": 17791,
  "ĠUSA": 7427,
  "Ãºc": 101439,
  "ĠÎ¿Î¹ÎºÎ¿Î³ÎµÎ½ÎµÎ¹Î±": 131385,
  "?).": 48366,
  "ĠPointer": 22366,
  "ĠGibraltar": 99903,
  "ISODE": 100001,
  "Ġãģª": 116422,
  "ĠClayton": 64544,
  "ĠHay": 18276,
  "ĠJade": 58627,
  "ĠÑĨÑİ": 118645,
  "Ġzwarte": 93186,
  "ĠâĶĢ": 119258,
  "ĠX": 1630,
  "ĠGridLayout": 81179,
  "adding": 3071,
  "ĠLau": 86091,
  "',[": 31610,
  "ï»ł": 125936,
  "Ð±Ð¾Ð»": 112094,
  "ç¸£": 107558,
  "Ġkay": 37947,
  "('<?": 66711,
  "merged": 41454,
  "Ġencourages": 37167,
  "ĠSage": 54384,
  "ĠGst": 81420,
  "canf": 21019,
  "ĠProblems": 45635,
  "Ġtop": 1948,
  "/embed": 59753,
  "Î»Î»Î±ÏĤ": 137898,
  "-focus": 80564,
  "ĠÙħØ§ÙĬÙĪ": 119304,
  "GC": 23710,
  "sphere": 88510,
  "ĉcv": 42270,
  "Ġopportunities": 10708,
  "hora": 47464,
  "Qed": 46949,
  ">(()": 59889,
  "{}\\": 89063,
  "esModule": 31112,
  "ALLERY": 80545,
  ".')ĊĊ": 49420,
  ".age": 31910,
  "ĠSouthampton": 62251,
  ".firstChild": 51006,
  "_blob": 47008,
  "Ġregistrations": 70590,
  "-te": 49893,
  "Ġstrut": 83443,
  "tres": 45632,
  "ÙĦÙĥØªØ±": 126426,
  "(msg": 8282,
  ".final": 44980,
  "(cnt": 47473,
  "ĠyapÄ±lan": 104502,
  "Ġregression": 31649,
  "ĠÎ£ÏĩÎŃ": 133613,
  "ĠValueType": 56645,
  "ĠInstitution": 43964,
  "ĠMuham": 117970,
  ".Compare": 33477,
  "ĠSystems": 15264,
  "Î¬ÎºÎ¹Î±": 131247,
  "ESIS": 84466,
  "ÙĤØ§ÙĦ": 105448,
  "-json": 57180,
  "ÏĦÎµÎ»Î®": 138105,
  "ĠÎ§ÏģÎ¹ÏĥÏĦÎ¹Î±Î½": 140663,
  "AND": 4064,
  "ĠÎ»Î±ÏĬÎºÎ®": 141720,
  "ĠÎµÎ»ÎŃÎ³ÏĩÎµÎ¹": 138634,
  "Ġtimp": 77745,
  "bek": 77614,
  "ĠÏħÎ³ÎµÎ¹Î¿Î½Î¿Î¼Î¹ÎºÎ®ÏĤ": 141761,
  "quota": 93704,
  "ĠChildhood": 72410,
  "æĭ¼": 125973,
  "Ġimagined": 35706,
  "ĠÏĢÎ»ÎµÎ¹Î¿Î½ÏĮÏĦÎ·ÏĦÎ±": 139115,
  "ĠÎ¿Î¹ÎºÎ¿Î½Î¿Î¼Î¯ÎµÏĤ": 142407,
  "ĠTask": 5546,
  ".students": 92535,
  "Ġvitamin": 28170,
  ".Msg": 31465,
  "cep": 32752,
  ".ng": 44007,
  "ĠÏĥÏĦÏģÎ¿": 136482,
  "klad": 101507,
  "æĬ¥éģĵ": 87327,
  "Report": 10577,
  "Tool": 7896,
  "Ġenthusiasts": 43448,
  "ÏĦÎ¿Î¾": 134525,
  "ĠÎ²ÎµÎ»ÏĦÎ¯ÏīÏĥÎ·ÏĤ": 136254,
  "ĠÎĵÎµÏīÏģÎ³Î¯Î±ÏĤ": 139511,
  "zure": 51303,
  "/im": 73124,
  "ĠÐ©": 106525,
  "Ġà¸¥": 102386,
  "ĠÏĪÎ·ÏĨÎ¹Î±ÎºÎ®": 135538,
  "Ġexceedingly": 76821,
  "($)": 84557,
  "yi": 39172,
  "Ø§ÙĨÚ¯ÙĦÛĮØ³ÛĮ": 117123,
  "Ġ<*>": 70583,
  "ĠÎĸÏīÎ®": 140681,
  "_regular": 50543,
  "ĠPDF": 11612,
  "APH": 24063,
  "emy": 4625,
  "kf": 82969,
  "éļĨ": 109596,
  "Ġinert": 81073,
  ".getResource": 45812,
  "oucÃŃ": 112319,
  "ecc": 72425,
  "Ġinability": 38550,
  "ĠCertificate": 32502,
  "654": 21969,
  "åİĤ": 108174,
  "$sql": 14745,
  "Ġchica": 80688,
  "à¤Ī": 100638,
  "ĠjednÃ©": 118154,
  "Ġlookup": 19128,
  "Ġleaps": 84558,
  "Ġcooperate": 47903,
  "))];Ċ": 83056,
  "relation": 23013,
  "iasco": 98383,
  "Ġelm": 43305,
  "ĠÎºÎ±ÏĦÎŃÎ»Î·Î¾Î±Î½": 142766,
  "Ġchests": 84418,
  "='-": 95093,
  "ĠProblem": 22854,
  "ĠTale": 55448,
  "/Peak": 90824,
  "ĠÎ±ÏĢÏĮÏģ": 135548,
  "Ġpreferences": 19882,
  "Ġscalp": 65426,
  "ospital": 6432,
  "Track": 16042,
  "ĠBolt": 47047,
  "Ġreminiscent": 56085,
  "ĠÏĢÏģÎ¿ÏĢÎ¿Î½Î·": 131857,
  "Ġdiminished": 54182,
  ")[:": 85662,
  "Ġsic": 53747,
  "entieth": 52231,
  "Î¼ÎµÏģÎ¹ÎºÎ±Î½": 128955,
  "ĠGreece": 25431,
  "Ġcreation": 9886,
  "orted": 13909,
  "xde": 57285,
  "åįģäºĮ": 114093,
  "Ġmerchants": 42870,
  "pricing": 75470,
  "Ġmouth": 11013,
  "ÎļÎ±ÏĦÏĮÏĢÎ¹Î½": 142233,
  "ĠPARA": 51500,
  "ulsion": 34003,
  "ĠÎ¤ÎĹÎĿ": 135129,
  "ĠâĢ": 639,
  "lal": 122591,
  "mult": 26961,
  "ĠÐ¼Ð¾Ð¹": 123828,
  "Ġrecursively": 53947,
  "ĠWHERE": 5401,
  "Ġkomment": 84134,
  "GR": 8796,
  "ĠÏĢÎ»ÎµÏħÏģÎ¬ÏĤ": 133723,
  "ãģ¤": 59739,
  "ĠØ§ÙħØ±ÙĪØ²": 116185,
  "_submenu": 97833,
  "ĠCape": 29715,
  "Ġavoids": 55952,
  "Mappings": 84521,
  "_NONNULL": 48803,
  "ĠMg": 73693,
  "ĠCompetitive": 79150,
  "Ġspontaneous": 54557,
  "iliated": 54873,
  "ĉroot": 34798,
  "..ĊĊ": 15882,
  "ĠStub": 67711,
  "Ġ'=',": 26442,
  "ĠAdapt": 59531,
  "ĠÑ": 9015,
  "Ð°ÑĢÑĩ": 119768,
  "Ġash": 24767,
  "itmap": 19798,
  "_ENDIAN": 58869,
  "SHOP": 79842,
  "ĠStations": 88016,
  "Ġpersists": 67145,
  ")L": 34542,
  "ĠÏĩÎ±Î»Î¬": 136000,
  "Î³Î½ÏīÏĥÎ·": 130674,
  "à¥ĩà¤Łà¤°": 122999,
  "ĠíĺĦìŀ¬": 111530,
  "ĠRomanian": 74697,
  "Ã¶": 3029,
  "vÄĽtÅ¡ÃŃ": 112582,
  "Ġerotica": 89489,
  "ĠReason": 27857,
  "\\Form": 22314,
  "ĠGetMessage": 95329,
  "Ġmounted": 22563,
  "æģ¶": 113129,
  "Î¹ÎºÏİÎ½": 106755,
  "äºĳ": 103458,
  "Pack": 31784,
  "ĠJOptionPane": 28179,
  "Ġanche": 29157,
  "_CHARSET": 96204,
  "áºµng": 120596,
  "Ġáº©m": 115560,
  "Ġscares": 97471,
  "ĠHom": 13525,
  "lieÃŁlich": 84190,
  "\")ĊĊ": 5240,
  "ĉrandom": 84728,
  "quarter": 33115,
  "ĠØ¨Ø§Ø²Ø§Ø±": 111211,
  "ÙĦÙĪ": 102787,
  "_task": 12461,
  "ĠWorksheet": 83731,
  "ĠĠĠĠĠĠĠĠĠĠĠĠĠĠĠĠĠĠĠĠĠĠĠĠĠĠĠĠĠĠĠĠĠĠĠĠĠĠĠĠĠĠĠĠĠĠĠĠĠĠĠĠĠĠĠĠĠĠĠĠĠĠĠĠĠĠĠĠĠĠĠĠĠĠĠĠĠĠĠĠĠĠĠĠĠĠĠĠĠĠĠĠĠĠĠĠĠĠĠĠĠĠĠĠĠĠĠĠĠĠĠĠĠĠĠĠĠĠĠĠĠĠĠĠĠĠĠĠ": 58040,
  "ÏģÎ¹ÏİÎ½": 128308,
  "Ġrebate": 91046,
  "Ġbreakthrough": 42445,
  "ĠMcM": 82814,
  "ĠÎµÎ¾Î±Î¹": 128453,
  "Ġevidently": 67170,
  "ĠÎ±ÏģÎ¼ÏĮÎ´Î¹": 131137,
  "(sig": 50229,
  "ĠÙģØ±ÙĬÙĤ": 123724,
  "ĠTxt": 80204,
  "éĩĳå±ŀ": 122830,
  "ĠKardash": 62362,
  "Ġcap": 2107,
  "ĠØ´Ø§Ø±": 112643,
  "(statearr": 99202,
  ".stem": 92632,
  "(comb": 99980,
  "Ġwb": 38958,
  "ETwitter": 54853,
  ".Router": 32513,
  "Ġincorporate": 33435,
  "Ġoutcome": 15632,
  "stor": 48465,
  "(q": 10806,
  "Ġdiffering": 61469,
  "ÙĬÙĥ": 101562,
  "WEBPACK": 25422,
  "ĠLimit": 29108,
  "Ġdelegation": 46361,
  "ĠLug": 93590,
  "innerText": 56117,
  "(\"%": 4530,
  "ĠÏĦÎµÎ»ÏīÎ½": 136293,
  "ĠEmer": 21185,
  "aders": 6527,
  "_Project": 65759,
  "al": 278,
  "Ġè¯": 102227,
  ".)ĊĊĊĊ": 76794,
  "à¤Ĩà¤ª": 120470,
  "åľ§": 121819,
  "(edge": 40889,
  "=\"_": 13308,
  "ĠÙĥØ§ÙħÙĦ": 126012,
  "_REQUEST": 14793,
  "ĠVatican": 47647,
  "quite": 84270,
  "ĠÎºÎµÎ¯Î¼ÎµÎ½Î¿": 131322,
  "ĠLiu": 38805,
  "Ġlining": 36471,
  "ĠHSV": 81411,
  ".force": 49294,
  "ĠÑĦÐ¾ÑĢÐ¼ÑĥÐ²Ð°Ð½Ð½Ñı": 122233,
  "ĠÎºÎ±ÏģÎ´Î¹Î±Î³Î³": 138779,
  "cea": 74038,
  "ĠæŃ¦": 116303,
  "job": 8975,
  "_rectangle": 62947,
  "Ġscrews": 46022,
  "ĠTud": 91251,
  "ĠvytvÃ¡": 122082,
  "ĠsÃ©rie": 47528,
  "ĠBrands": 55332,
  "Ġaccents": 59570,
  "ĠterÃ¶r": 123336,
  "ĠÙ¾Ø³Ø±": 124948,
  "ijken": 58002,
  "Battery": 70363,
  "ĠHai": 63782,
  "-supported": 88213,
  "ìĺ¨": 102837,
  "ĠØ¨Ø§Ø²ÛĮ": 102887,
  "ĠãĥĿ": 117082,
  "Guess": 46830,
  "_stuff": 96496,
  "ĠartÄ±k": 108207,
  "ĠÏĦÎŃÏĦÎ±ÏģÏĦÎ·": 138543,
  "ĠOV": 75402,
  "Ġcomparative": 55394,
  "Ġbá»ĩnh": 103893,
  "ÑģÐºÑĸÐ»ÑĮÐºÐ¸": 112893,
  "ĠHibernate": 64548,
  "Ġlimit": 4017,
  "Ġcitations": 52946,
  "/spec": 46489,
  "Ġsophistic": 24940,
  "-points": 93558,
  "ĠOkHttpClient": 80020,
  "SCO": 77465,
  ".pic": 43196,
  "-blocking": 79861,
  "ĠyanÄ±nda": 111827,
  "ĠImGui": 39641,
  "romÄĽ": 110130,
  ".getServer": 83051,
  "ĠÐºÐ»Ð°ÑģÑģ": 60748,
  "_bl": 13442,
  "Ġcooper": 22415,
  "ULER": 90931,
  "itlement": 46437,
  "/http": 16001,
  "ĠHTTP": 10339,
  "ĠĠĠĠĠĠĠĠĠĠĠĠĠĠĠĠĠĠĠĠĠĠĠĠĠĠĠĠĠĠĠĠĠĠĠĠĠĠĠĠĠĠĠĠĠĠĠĠĠĠĠĠĠĠĠĠĠĠĠĠĠĠĠ": 15628,
  "ATTRIBUTE": 84098,
  "ĉlog": 6867,
  "ni": 7907,
  "_Run": 85258,
  "ĠÎµÎ¾ÎµÎ»": 129020,
  "Ġteens": 27294,
  "loha": 120685,
  "Ð±Ñĸ": 115421,
  "Ġgroove": 57506,
  "teg": 113592,
  "Flags": 9375,
  "Ġpdf": 13072,
  "ï¼Īå¹³æĪĲ": 121780,
  "Î½ÏİÎ¼Î·": 138993,
  "nostic": 87524,
  "Ġtrusts": 66614,
  "ĠChow": 75058,
  "pyx": 86459,
  "ĠÎ´ÏģÎ¬": 128203,
  "Ġifs": 85173,
  "ested": 10185,
  "ĠÎĳÎ»ÎµÎ¾Î±Î½Î´ÏģÎ¿Ïį": 140951,
  "quired": 3004,
  "åį·": 103012,
  "ĠDataGridViewCellStyle": 76363,
  "ĠãĢĤ": 60233,
  "Ġcouncillors": 98505,
  "-tests": 82194,
  "Ġconceded": 62687,
  "Ġissuer": 55935,
  "Ġsme": 91567,
  "ĠÐ²ÑĸÐ´Ð±ÑĥÐ²Ð°ÑĶÑĤÑĮÑģÑı": 124619,
  "...Ċ": 9522,
  "Ø±Ùģ": 100598,
  "ĠÏĦÎµÎ»Î¹ÎºÎ¿Ïį": 139832,
  "Ġbáº¡i": 125501,
  "decess": 28009,
  "Numeric": 37396,
  "Ġshard": 53169,
  "lanan": 104960,
  "sur": 20370,
  "ĠGLES": 79748,
  "ĠCHRIST": 84665,
  "ĠÏĥÏħÎ½ÏĦÎ·": 140456,
  "Ġfoundation": 16665,
  "boy": 17627,
  "Ä±yÄ±": 113509,
  "stu": 61782,
  "geist": 79500,
  "ĠWITH": 4874,
  "ĠÏĥÏħÎ½ÎµÏĩÎµÎ¯Î±": 138164,
  "keeping": 33494,
  "Ġlicked": 94035,
  "tablet": 99793,
  "ophone": 78303,
  "odian": 64949,
  "Ġìĸ´ëĶĶ": 117337,
  "ĠSpells": 79153,
  "Ã¡ze": 113349,
  "_trap": 89636,
  "*)((": 66197,
  "ĠSmoke": 54304,
  "Ġcatching": 34168,
  "Ġkayb": 115618,
  "Ġlake": 22553,
  "Ġdegree": 8547,
  "ĠÐ¾ÑģÐ²Ñĸ": 109138,
  "igrants": 71336,
  "ruc": 80455,
  "iameter": 37144,
  "Ã¡ct": 115005,
  "ä¾": 20135,
  "Ġchecks": 12621,
  "Ġkilled": 7577,
  "ĠInnovation": 38710,
  "]\")]Ċ": 77559,
  "à¸²à¸Ń": 103585,
  "Ġmunicipal": 27512,
  "_ru": 74684,
  "Ġshot": 6689,
  "arket": 55660,
  "Ġleads": 11767,
  "ĠSurprise": 85584,
  ".Func": 70945,
  "ĠADHD": 52564,
  "_RDONLY": 67204,
  "Reload": 51135,
  "ĠÏĢÎ±Î½Î´Î·": 129132,
  "Ãĳ": 72454,
  "ĠÎ½ÎŃ": 114728,
  "ĠDaniel": 15469,
  "Ġì¶Ķê°Ģ": 69508,
  "ìŀ¥": 41953,
  "ĠØŃØ³Ø¨": 117459,
  "ĠGym": 46631,
  "ayed": 43995,
  "Ġneedles": 57267,
  "Ignore": 12780,
  "Ġcram": 100181,
  "ĠÎłÏģÎ¿ÎŃÎ´ÏģÎ¿Ïħ": 135434,
  "Ġserde": 62670,
  "_featured": 80520,
  "Ġkako": 91617,
  "andre": 80281,
  "Ġmis": 5906,
  "Ġfanc": 81697,
  "kemiz": 115193,
  ".subplot": 46767,
  "æķı": 112163,
  "Fish": 65641,
  "constructor": 22602,
  "ĠÎºÏİÎ´Î¹ÎºÎ±": 135380,
  "URLConnection": 39772,
  "Refer": 48547,
  "Ø±ÙĬØ·": 125200,
  "Âłmi": 123744,
  "Ġpok": 45295,
  "Ø§ÙĬØ§Øª": 106259,
  "igDecimal": 31283,
  "FileVersion": 87893,
  "_utils": 17758,
  "HasMaxLength": 54701,
  "ĠÐ¿ÑĢÐ¾Ð´Ð°Ð¶": 119780,
  "ëħĢ": 103284,
  "å·¥åħ·": 114722,
  "!\\": 15114,
  "ĠÑĩÐ°ÑģÑĤÐ¸": 103342,
  "CNT": 98354,
  "ĉaccount": 87966,
  "ĠÏĢÏģÎ¿ÏĥÎ±Î½Î±ÏĦÎ¿Î»": 133344,
  "ĠtÃ£o": 96772,
  "ĠÐ¾ÑģÐºÑĸÐ»ÑĮÐºÐ¸": 118658,
  "Ġmanned": 89425,
  "Ġmisconception": 98431,
  "'},čĊ": 77427,
  "ration": 2214,
  "_WRAPPER": 99951,
  "ĠÎ¼ÎŃÏĥÎ·": 131189,
  ".telegram": 83903,
  "ĠDAM": 12640,
  "_font": 17909,
  "(lhs": 58635,
  "Ïĭ": 128169,
  "-offsetof": 55287,
  "Ġpsychiatrist": 73969,
  "Ġcompos": 40321,
  "orarily": 97254,
  "(ticket": 82539,
  "Ġglobally": 31550,
  "=\"{!!": 85475,
  "ĠÎ¹ÏĥÏĩÏħÏģÎŃÏĤ": 137339,
  "ament": 2908,
  "ĠWie": 43716,
  "à¸Ĺà¸²à¸Ļ": 119967,
  "Ð½Ð¸ÑĨÑĤ": 104596,
  "ĠBalls": 71703,
  ".enable": 29797,
  "ĠÏĥÏĦÎ¹": 126948,
  "_found": 22200,
  "ĠnÃŃÅ¾": 122158,
  "Ò": 142,
  "ĠÐ¿ÑĢÐ¾Ñģ": 106427,
  "ises": 5014,
  "order": 1382,
  "oucher": 24889,
  "ĠprÃ¡va": 118234,
  ".List": 5937,
  "ĠÑģÐ²ÑĸÑĤÑĥ": 115747,
  "|max": 44855,
  "ĠFreight": 91338,
  "Ä±ndÄ±r": 127190,
  "ĠÐ¿Ð¾Ð»ÐµÐ·": 112036,
  "ĠÎµÎ½ÏĦÎ¿Î»": 135917,
  "razier": 92147,
  "Ġdapat": 45217,
  "ãģªãģĬ": 126738,
  "ngen": 100111,
  "ĠDirector": 10783,
  "ĠìĨĲìĿĦ": 125508,
  "Ġuniversities": 23978,
  "ĠÚĨÙĪÙĨ": 110086,
  "prom": 25475,
  "ĠTransition": 38821,
  "segue": 47206,
  "Ġelast": 92185,
  "Î¬Î½ÏĦÎ¹Î±": 132674,
  "Ġmedio": 49779,
  "ioned": 97657,
  "Ġtoolkit": 66994,
  "Ø³ÙĪÙĨ": 109534,
  "ÏĨÏħ": 118207,
  "AES": 70268,
  "//----------------------------------------------------------------------------": 18498,
  "pci": 56487,
  "ÏĮÏĦÏħÏĢÎ±": 140905,
  "golden": 98335,
  "_ATTRIB": 100143,
  "Ġnegotiate": 37667,
  "ĠÙĩÙĨÚ¯Ø§Ùħ": 117404,
  "uous": 9373,
  "Ġìĭ¤í": 62085,
  "ĠÎµÎ¾ÏħÏĢÎ·ÏģÎŃ": 133995,
  "}`,": 29450,
  "ĠHouston": 16386,
  "à¹Ĥà¸Ľà¸£à¹ģà¸ģà¸£à¸¡": 126583,
  "ĠÏĢÎµÏģÎ¹ÏĮÎ´Î¿ÏħÏĤ": 134608,
  "nemonic": 71875,
  "atÃ¼rk": 120743,
  "ÏģÎ®ÏĥÎµÎ¹": 129490,
  "erten": 52058,
  "Ġ}),ĊĊ": 52040,
  "ĠÏĦÎ¹Î¼ÏİÎ½": 130339,
  "china": 81236,
  "ĠBLACK": 37747,
  "ÏĥÎ±Î½": 107764,
  "vr": 19456,
  "vala": 115999,
  "ĠÎ³ÎµÏį": 132719,
  "ĠÐ·Ð°ÑħÐ¾Ð´": 110207,
  "_CONV": 86423,
  "ĠÐ±ÑĭÐ»Ð°": 105129,
  "ĠCGRect": 16389,
  "ĠÑĥÑģÑĤÑĢÐ¾Ð¹": 111406,
  "antiago": 44074,
  "Encrypt": 62620,
  "ĠHorny": 69354,
  "_yellow": 94153,
  "ĠÏĥÏħÎ¼ÏĢÎ¿": 134412,
  "Ġautop": 72258,
  "Ġcritiques": 87313,
  "Ð¾Ð±ÑĢÐ°Ð": 55799,
  "Produto": 52250,
  ",:)": 35028,
  "Ġteaching": 12917,
  "Ġtire": 28387,
  "-US": 33440,
  ")ë¥¼": 124338,
  "late": 5185,
  "ĠKons": 125801,
  "ĠIp": 36133,
  "ĠÏĢÏģÎ¿ÎºÎ¬Î»ÎµÏĥÎµ": 132706,
  ";q": 61999,
  "Î¬Î½ÏĦ": 132414,
  "Nie": 77483,
  "ëª»": 120669,
  "ĉar": 70440,
  "Ġconseg": 99151,
  "ongan": 83388,
  ".stride": 93735,
  ":;\"": 64073,
  "Ġprojet": 46494,
  "åŀ": 101037,
  "å¯Į": 105469,
  "ĠÏĦÏĮÏĦÎµ": 128352,
  "QU": 5876,
  "ĠADS": 65335,
  "Ġë¨": 103273,
  "ĠÎľÎŃ": 112161,
  "ĠGridView": 42035,
  "ĠÎµÎºÏĦÏĮ": 140396,
  "ĠÎ¬ÎºÏģÎ·": 136164,
  "Ġdefer": 18440,
  "ĠÑģÐ¾ÑģÑĥÐ´": 126716,
  ".Ass": 11108,
  "èĢ": 20551,
  "ĠÎĺÎķ": 139907,
  "Ġhangs": 59441,
  "accur": 37021,
  "Ġrin": 54821,
  "ĠQt": 10817,
  "ĠÎĳÎ½Î±Î³Î½Ïī": 141796,
  "_GUID": 59748,
  "ĠBugs": 87601,
  "Ġ{}čĊ": 35241,
  "_if": 11366,
  "Î¼ÎµÎ½Î·": 122497,
  "byter": 72707,
  ".Count": 6262,
  "hei": 61952,
  "ĠÑĦÐ¸Ð»ÑĮ": 113370,
  "const": 1040,
  "Ġrospy": 36678,
  "Ġorganization": 7471,
  "\\Modules": 95498,
  "çº¯": 118465,
  "Ġtrickle": 98444,
  "Ġpatrons": 52860,
  "-q": 52708,
  "ops": 3806,
  "Mode": 3720,
  "Don": 8161,
  "Ġbeard": 48788,
  "ĠÎµÏĢÎ¹Î¸ÎŃÏĥÎµÎ¹ÏĤ": 134286,
  "à¸Łà¸£": 106466,
  "ì´Ī": 103719,
  "_geom": 74087,
  "åľĸ": 106779,
  "Ġregion": 5654,
  "489": 22418,
  "Ġ\")\"": 59507,
  "ĠÐ½Ð°ÑĤ": 111640,
  "æī©": 119661,
  "(strtolower": 74845,
  "Î³ÏģÎ¬Î¼": 128443,
  ".setItem": 19965,
  "âĢĻdan": 112088,
  "ribly": 37852,
  "expand": 33417,
  "æĶ¿åºľ": 105212,
  "ĠConservation": 45435,
  "Ġfloods": 61272,
  "ABILITY": 5854,
  "anter": 81130,
  "ĠProdu": 12311,
  "960": 16415,
  "opp": 4880,
  "ĠÎ±ÏħÏĦÎ®": 114240,
  "DESCRIPTION": 46533,
  "pattern": 14676,
  "çŁ³": 102465,
  "(Image": 31222,
  "Ġfathers": 40317,
  "_Free": 59555,
  "ÎĻÎĳÎļ": 118185,
  "ĠGNOME": 98686,
  "_singular": 94340,
  "?<": 76514,
  "(food": 82111,
  "Disable": 26558,
  "Ġnell": 66902,
  "Ġcuckold": 82352,
  "Î±Î½Î¬Îº": 141224,
  "ĠFurious": 93431,
  "[MAX": 19322,
  "Î¬Î´Î±": 141758,
  "vk": 49463,
  ".active": 13930,
  "ĠÎ¼ÏĢÎ±Ïģ": 137585,
  "Î¬ÏĥÎ¼Î±ÏĦÎ±": 130353,
  "ĠCut": 20223,
  "ĠÎ£ÎµÏģÎ²Î¯Î±": 142259,
  "ÑģÑĤÐ²ÐµÐ½Ð½Ð°Ñı": 125146,
  "iname": 80956,
  "ĠPowerPoint": 54600,
  "ĠØªØ¹Ø±ÛĮÙģ": 124751,
  "à¸±à¸ķà¸£": 107012,
  "ĠiÃ§erisinde": 107930,
  "Ġexemplo": 80694,
  "ãĤ³ãĥ³": 109713,
  "ĠConsider": 21829,
  "/big": 92036,
  "Ġyapmak": 108525,
  "Î½ÏīÏĥÎ·": 131443,
  "ĠÎ¸ÎµÏģÎ¼Î¿": 133022,
  "_equiv": 72949,
  "Mate": 97742,
  "ÂłÂłÂłÂłÂłÂłÂłÂłÂłÂłÂł": 121116,
  "NBC": 40476,
  "ĠØ±Ø³ÛĮØ¯": 111005,
  "caÃ§Ã£o": 91623,
  "hits": 51305,
  "inez": 39395,
  ".onResume": 63404,
  ".Raise": 91698,
  "fb": 11032,
  ".Surface": 82074,
  "ĠANY": 4230,
  "Ġmelakukan": 82337,
  "ĠÎºÎ¿Ïģ": 122593,
  "Ġparalle": 58130,
  "osi": 31824,
  "_BUFF": 63228,
  "Ġhumanitarian": 38748,
  "hang": 21313,
  "Ġmig": 29444,
  "\\Queue": 74397,
  "ĠbindActionCreators": 79320,
  "learning": 21656,
  "Ġocc": 3056,
  ">().": 10703,
  "Ġoccupations": 60966,
  "uild": 1526,
  "Ġhad": 1047,
  "Ġspot": 7858,
  "Car": 9028,
  "likleri": 120300,
  "ĠlÃ¡tky": 127968,
  "Ġanticipated": 30199,
  ".FileName": 36331,
  "Ġquiz": 28223,
  "_MARGIN": 72923,
  "Ġyogurt": 55575,
  "WebpackPlugin": 62286,
  "Ġpager": 53688,
  "ĠÏĢÏģÏĮÏĥÎº": 136770,
  "_[": 12147,
  "III": 23440,
  ".GUI": 65418,
  "_calendar": 58765,
  "ÐµÐ²Ð¾Ð³Ð¾": 119002,
  "Ġquick": 4062,
  "ĠTet": 50862,
  "Ð¹Ð½": 114440,
  "Ġfaint": 38678,
  "Piece": 32309,
  "ĠfotoÄŁraf": 117072,
  "rive": 58035,
  ".fastjson": 74717,
  "ĠÎ±ÏĨÎµ": 136618,
  "Ġuh": 44844,
  "Ġmama": 57264,
  "Ġchá»ī": 99227,
  "Ġbil": 20934,
  "ĠÎ½ÏĦÎ¿ÎºÎ¹Î¼Î±Î½ÏĦÎŃÏģ": 138937,
  "ĠGest": 54999,
  "Esta": 60742,
  "ĠPierce": 50930,
  "Ġprevailing": 61129,
  "Ġgums": 98754,
  "ĠÎºÎ±ÏħÏĥÎ¯Î¼Î¿Ïħ": 139427,
  "Ġdedic": 57766,
  ".classList": 14184,
  "_probe": 50208,
  "Ð°Ð½Ð°": 101369,
  "estate": 65215,
  "}'.": 24398,
  "ĠÎ±Î¹ÏĦÎ®ÏĥÎµÏīÎ½": 134816,
  "ĠHDC": 97417,
  "ĠassertTrue": 22358,
  "_GenericClass": 37074,
  "ĠGURL": 94519,
  "_alias": 37047,
  "ĠSeek": 30839,
  "Ġextremist": 56882,
  "ĠBS": 28718,
  "Ġpwd": 33806,
  "ĠluÃ´n": 106019,
  "ãĢĥ": 112496,
  ".utc": 46497,
  "abyrinth": 62630,
  "ëĲł": 113191,
  "Ġ-----": 35803,
  "ĠPromotion": 57204,
  "ĠsetContent": 69360,
  "EQ": 55107,
  "ĠÎ¬Î»": 119829,
  "íĽĦê¸°": 120521,
  "almÃ¶": 91856,
  "ĠConstructors": 52868,
  "(gt": 80442,
  "ĠsoÃ¡t": 111187,
  "Ġpubs": 74862,
  "phyl": 110231,
  "trasound": 54865,
  ".characters": 82395,
  "ĠÎ±Î½ÏĦÎ¹ÏĥÏĦÎ±Î¸Î¼": 139357,
  ".al": 12444,
  "ĠÐ¿Ð¾Ð¹": 121521,
  ".banner": 86679,
  "ĠÐ·Ð°Ñģ": 102327,
  "STATIC": 41981,
  "Ø²Ø§Ø±Ø´": 110837,
  "ĠHalf": 26924,
  "adil": 124003,
  "Ur": 55615,
  "Ñģ": 2297,
  "Ġorderby": 86936,
  "cÃŃm": 106136,
  "ĠÐ¾Ð±Ð»Ð¸Ñĩ": 118184,
  "ç¯ĩ": 111879,
  "ĠAssange": 60507,
  "Ġgehen": 63559,
  "ĠÏĥÏħÎ½ÎµÏĩÎ®ÏĤ": 140110,
  "Ġtried": 6818,
  "Ġ-.": 43845,
  "èı¯": 105189,
  "Ġdisrespect": 57309,
  "ĠDecay": 98386,
  "matchCondition": 24926,
  "Ġ---------------------------------------------------------------------------Ċ": 79857,
  "_logged": 48433,
  "byte": 3867,
  "ĠSgt": 56760,
  "ĠÎłÎ±Î½Î±": 129297,
  "Ã¡zi": 121515,
  "Ð°ÑĢÐ°ÐºÑĤ": 103003,
  "âĢĮØ§ÛĮ": 103418,
  "ĠÎĹÎ»ÎµÎºÏĦÏģÎ¿Î½": 137780,
  "Ġvient": 86100,
  "Ġgenius": 35201,
  "ĠÎĳÎłÎĺ": 139958,
  "-memory": 65196,
  "åįģäºĶ": 120902,
  "846": 26563,
  "ç": 163,
  "}->{": 64218,
  "Ġhaha": 63450,
  "<f": 64995,
  "ĠÐ±ÑĥÐ´ÑĮ": 108218,
  "ĠDepot": 48070,
  "extract": 24396,
  "ĠChampionship": 19134,
  "cache": 9544,
  "/url": 58354,
  "[:": 3530,
  "åĲįç§°": 31091,
  "strar": 22979,
  "ĠÏĦÎ¬": 127832,
  "ÙħØŃÙħØ¯": 124841,
  "ĠÎ»Î±ÏĬÎº": 140687,
  "Registration": 24253,
  "Ġconnector": 28087,
  "ĠÏĢÎµÎ¹Î¸Î±Ïģ": 135636,
  "Ġrefreshing": 37018,
  "ENCHMARK": 97290,
  "ĠØ¥ÙĬ": 125754,
  "ĠPrinter": 47033,
  ".::": 105939,
  "å®ĥä»¬": 127150,
  "Ġprostitute": 66641,
  "ĠIRequest": 82666,
  "ĠDebbie": 64489,
  "ĠWoj": 97260,
  ".bindingNavigator": 46705,
  "Henry": 64463,
  "xAA": 61151,
  "ĠÄ°": 39521,
  "Ġcelebrates": 49193,
  "ĠReflect": 35698,
  "ÑģÑĤÐ²Ð¸Ðµ": 115848,
  "dist": 12489,
  "he": 383,
  "_SI": 95521,
  "Encryption": 80339,
  "ĠÎµÏģÎ³Î¬Î¶ÎµÏĦÎ±Î¹": 137187,
  "MySQL": 60324,
  "ĠEg": 39175,
  "efully": 74092,
  "IES": 5482,
  "His": 16366,
  "ĠÎŃÎ³Î³ÏģÎ±ÏĨ": 130744,
  "éĶĢåĶ®": 116742,
  "ĠSpy": 47414,
  "Ġprofess": 35578,
  "Ġvaz": 111061,
  "Ġà¸¢": 103267,
  "ĠÑįÑĦÑĦÐµÐºÑĤÐ¸Ð²": 110679,
  "orest": 42519,
  "Ġcheese": 17604,
  "<pre": 10328,
  "Ð¾Ñĥ": 127377,
  "uncia": 95585,
  "ÏĢÎ¿Î¹Î®ÏĥÎ¿ÏħÎ½": 133670,
  "Ã¶s": 33554,
  "à¹Įà¹Ħà¸Ķ": 126063,
  "ĠåŁ": 104553,
  "ÏĦÎ¹ÎºÎµÏĤ": 139745,
  "èħ": 101921,
  "ĠGor": 47247,
  "Ġmlx": 76511,
  "needs": 56345,
  ".Target": 36116,
  "Ġpolish": 45129,
  "(exit": 89722,
  "urrencies": 20180,
  ".reply": 34953,
  "ĠValerie": 90357,
  "ĠSantiago": 55678,
  "/sdk": 80860,
  "Ø§Ø²ÙĬ": 120784,
  "ĠÎĴÏĮÏģÎµÎ¹Î±ÏĤ": 137740,
  ".urlopen": 63695,
  ".char": 11402,
  "overflow": 21490,
  "å®Įæķ´": 126827,
  ".DEBUG": 39236,
  "à¹Ĥà¸£à¸ĩà¹ģà¸£à¸¡": 110604,
  "ĠÎ¼ÎµÏĦÎ±ÎºÎ¹Î½Î®": 134650,
  "ĠÎ±Î½ÏĦÎ±": 128124,
  "Ġoverriding": 68971,
  "×¢": 87171,
  "âĶģâĶģâĶģâĶģâĶģâĶģâĶģâĶģ": 108373,
  "ĠÏĢÏģÏīÏĦÎµÏĬÎ½ÏİÎ½": 141330,
  "gota": 71253,
  "pt": 418,
  "ĠÐ¿ÑĢÐ¸ÑĩÐ¸Ð½": 109469,
  "Ġhissed": 122807,
  "Grey": 60265,
  "ĠCultural": 41333,
  "ighton": 88873,
  "lament": 116550,
  "Emoji": 93831,
  "Ġplagiar": 68673,
  "iers": 4918,
  "ĠÏĩÏģÎ¿Î½": 128191,
  "ĠUnityEditor": 76517,
  "ÏĢÎ¿Î¹Î·Î¸Î¿ÏįÎ½": 132262,
  "Ġtabela": 68315,
  "ĠÐ´ÑĥÐ¶Ðµ": 106291,
  "Î³Î³ÎµÎ¯": 138611,
  "ĠÎ¼ÎµÏĦÎ±ÏĨÎ¿ÏģÎ¬ÏĤ": 132357,
  "à¹Īà¸²à¸ģà¸²à¸£": 123018,
  "Ġassigned": 12893,
  "Ú©ØªØ±": 105240,
  "ĠÑĢÐ°Ð·Ð¼ÐµÑī": 127716,
  "nehmen": 38160,
  "ĠÎĨÏģÎ·ÏĤ": 142869,
  "Ġtelah": 58735,
  "ĠÄĳáº¥t": 103033,
  "_caption": 62805,
  "Ġcelery": 70121,
  "ĠLotto": 98813,
  "ĠÎ±ÏĢÎ¿ÎºÎ±Î»Ïħ": 137882,
  "ĠHttpStatus": 40103,
  "Ġgateway": 29895,
  "678": 17458,
  "ĠproblÃ©my": 122410,
  "Ġ|--------------------------------------------------------------------------Ċ": 62350,
  "ĠÎ³ÏģÎ±Î¼Î¼ÏİÎ½": 141623,
  "Ġstyl": 49304,
  "ĠÎºÏĦÎ·Î½Î¿ÏĦÏģÏĮÏĨÏīÎ½": 140739,
  "$rows": 88989,
  "reau": 91049,
  "ç®Ģåįķ": 119992,
  "ĠElm": 65329,
  "Ġgrpc": 49000,
  "ĠSaÄŁ": 110560,
  "uche": 34927,
  "utura": 79807,
  "ìĬ¤íĦ°": 109218,
  "à¸±à¸ķà¸§": 121723,
  "ÐµÐ»ÑĮÐ·Ñı": 112414,
  "ancia": 25131,
  "aired": 25260,
  "Ġpercentages": 54208,
  "):čĊ": 5903,
  "ĠÎµÏĦÎ±Î¯ÏģÎ¿ÏħÏĤ": 140420,
  "ĠAh": 16770,
  "Ġsuppliers": 20972,
  "ĠAssistance": 46865,
  "Ð¸Ñģ": 13810,
  "Ġpawn": 54555,
  "ĠÏįÎ´Î±ÏĦÎ±": 142565,
  "ellation": 43313,
  "-written": 67383,
  "gia": 55901,
  "Î»Î»ÎµÎ¹": 128334,
  "-submit": 52315,
  "enty": 7313,
  "ĠÐļÐ¾Ð¼": 107189,
  "Ġinterpreting": 66744,
  "usal": 36514,
  "Ġlegit": 15933,
  "eh": 2701,
  "ĠÎµÎ½ÎµÏģÎ³": 128198,
  ".Destroy": 58111,
  "avl": 68411,
  "ĠMerkel": 47520,
  "Ġmari": 12985,
  "ĠÈĻi": 30434,
  ".grp": 95858,
  "Ġinteract": 16681,
  "forgettable": 57546,
  "Ġerrone": 58889,
  "ĠReceiver": 52052,
  "éĥ½æĺ¯": 108619,
  "ĉtoken": 45047,
  "Ġkli": 108106,
  "Ð½Ð°Ð²": 106549,
  "ĠVolk": 43614,
  "ĠQuaternion": 25838,
  "Î´ÏģÎ¿Î¼Î®": 131013,
  "ĠÏĨÎ¯Î»Î¿ÏĤ": 138463,
  "OperationContract": 97207,
  "ĠØ¯ÙĩÛĮØ¯": 124559,
  "Ġazt": 98994,
  "Offsets": 82195,
  "Ġartists": 13820,
  "Ġkolo": 121007,
  "Ġ\"\"))Ċ": 78661,
  "ĠãĥĹ": 109887,
  "-f": 2269,
  "(LED": 84237,
  "ĠBlogs": 76336,
  "PG": 11637,
  "Ġsucker": 94888,
  "mitter": 16517,
  "Ä±lÄ±ÅŁ": 124174,
  "ĠBacon": 62484,
  ".level": 20702,
  ".cgi": 60114,
  "ĠnÃ¤": 44217,
  "ĠÑģÑĤÑĢÐ¾Ð¸ÑĤÐµÐ»ÑĮ": 110981,
  "Answers": 48332,
  "])))": 81503,
  "Ġherbs": 42393,
  "ĠonDataChange": 100008,
  "ĠÙĤÙĨ": 121023,
  "Ġdao": 25810,
  ".publish": 34162,
  "Ð¾ÑĢÐ´": 124166,
  "ollapse": 11019,
  "ĠHOME": 41667,
  "Ġê³¨": 113907,
  "ĠÎ±Î½Î¬Î³ÎºÎµÏĤ": 129204,
  "Ġresources": 5070,
  ".signal": 51553,
  "Ġstroke": 12943,
  "_nat": 39269,
  "evaluation": 75114,
  "/release": 89748,
  "619": 23388,
  "Ġà¤ĩà¤¸à¤®": 112082,
  "æµĭè¯ķ": 82805,
  "_excel": 52342,
  "/find": 82221,
  "Together": 82087,
  "ĠPacks": 90632,
  "imento": 15377,
  "ĉthat": 64442,
  "ĠMaurice": 68529,
  ".gg": 78779,
  "ĠRog": 15617,
  "$model": 51529,
  "elier": 68249,
  "alardan": 123997,
  "ĠYayÄ±n": 117646,
  "Ġ{}\\": 57157,
  "ĠcÃ¡": 59801,
  "race": 42283,
  "ĠpÅĻÃŃstup": 111852,
  "ãģ¾ãĤĮ": 123606,
  "two": 20375,
  "Ġê¸°ëĭ¤": 123118,
  "ĠHew": 60350,
  "ĠÐ¼Ð¾Ð½": 106993,
  "ĠÎĳÎ»Î»Î·": 140712,
  "merc": 65522,
  "Ġparan": 48682,
  "Ġlocksmith": 99060,
  ".FileReader": 86832,
  "ĠÎŁÎ»ÏħÎ¼ÏĢÎ¹Î±ÎºÏĮ": 135127,
  "'><": 18914,
  "ãĤ°ãĥ©": 111134,
  "ĠÏĦÎµÏĩÎ½Î¹ÎºÏİÎ½": 135208,
  "ØŃØ§Øª": 108754,
  "Ġgunmen": 98768,
  "_generation": 65291,
  "-li": 76646,
  "Cont": 825,
  "ä»¥ä¸ĭ": 88852,
  "ĠÎµÎ³ÎºÏģÎ¹": 137730,
  "ĠCLASS": 29039,
  "elp": 1290,
  ".xlabel": 34198,
  "ĠØ¯Ø±ÛĮØ§": 123692,
  "Ġripe": 57796,
  "ONGO": 65084,
  "ĠFunctor": 88732,
  "ĠGP": 24618,
  ">());ĊĊ": 94818,
  "ĠÎ´Î¹Î±ÏĨÏīÎ½": 133647,
  "ĠbaÄŁlantÄ±lar": 111617,
  "ĠØ´Ùĩ": 103635,
  "ĉĉĉĉĉĉĉĊ": 28768,
  "ĠTechnology": 12053,
  "ĠÎµÎ½Î¯ÏĥÏĩÏħ": 128811,
  "êµ´": 108214,
  "ÑĦ": 19916,
  "ĠXiaomi": 72549,
  "ä¿Ĥ": 108826,
  "ĠOliver": 31346,
  "aleur": 61047,
  "ĠÎ±Î¯Ïĥ": 131116,
  "ĠëĤ¨": 102484,
  "Ġunl": 65985,
  "ÐµÐ½Ð½ÑĭÐ¼Ð¸": 120712,
  "ĊĉĊ": 18108,
  "ĠbÃŃl": 123466,
  "Ġà¸ļà¸²à¸ĩ": 125696,
  "utomation": 86363,
  ".message": 6837,
  "_helpers": 55573,
  "(yy": 86967,
  "Ġevacuated": 63358,
  "ĠÎ¸ÏģÎ·ÏĥÎºÎµ": 137561,
  "IMER": 57321,
  "Ġmerg": 18970,
  "ĠrootView": 52986,
  "OutOf": 32831,
  "ĠÎµÏĢÎ¹ÏĥÏĦÎ·Î¼Î¿Î½Î¹ÎºÏİÎ½": 142283,
  "ĠÎ±ÏĢÎ¿ÏĥÏĦÎ¿Î»Î®": 132032,
  "ĠjsonObject": 31327,
  "viewModel": 74710,
  "ĠÏģÎ·ÏĦÎ¿": 141939,
  "ĠSpice": 68921,
  "Ġháº¡ng": 104893,
  "ÙĦÛĮÙħ": 123159,
  ".dark": 53942,
  "Ġtopics": 13650,
  "den": 5294,
  "Alloc": 26212,
  "ĠsourceMappingURL": 45795,
  "ĠRecon": 84081,
  "ĠExped": 64412,
  "ĠAu": 33150,
  "Architecture": 92051,
  "aid": 3864,
  "Ġhasher": 91919,
  "Ġbuena": 65896,
  "ĠDensity": 73710,
  "motor": 59088,
  ".UserId": 38578,
  "ĠBeautiful": 20055,
  "ĠĠĠĠĠĠĠĠĠĠĠĠĠĠĠĠĠĠĠĠĠĠĠĠĠĠĠĠĠĠĠĠĠĠĠĠĠĠĠĠĠĠĠĠĠĠĠĠĠĠĠĠĠĠĠĠĠĠĠĠĠĠĠĠĠĠĠĠĠĠĠĠĠĠĠĠĠĠĠĠ": 98517,
  "\\e": 68449,
  "Ġupdates": 9013,
  "ĠHansen": 58253,
  "Ø§ÙģÛĮ": 111379,
  "040": 12505,
  "Î¼Î¿ÏįÏĤ": 132278,
  "é£ŀ": 107163,
  "ĠÏħÏĢÎ¿Î²Î¿Î»Î®ÏĤ": 133592,
  "Events": 8059,
  "(provider": 51986,
  "ĠÎ±Î½Î±Î¶Î·ÏĦÎ¬": 141232,
  "ĠæĤ": 118375,
  "theta": 16356,
  "<stdlib": 75583,
  "ĠÎµÏĢÎ·": 136937,
  "ĠÐºÑĥÑħ": 114290,
  "Ġcáº¥p": 101386,
  "vio": 73822,
  "tbody": 10303,
  "(crate": 56007,
  "Î¸Î±Ïģ": 128944,
  "ĠÎĳÏĢÏĮÏĨÎ±ÏĥÎ·": 136345,
  "tel": 23774,
  "LECT": 4053,
  "(completion": 91868,
  "\"><!--": 80093,
  "į°ìĿ´íĦ°": 51462,
  "Ġunwanted": 36021,
  "/host": 91219,
  "ĠKraft": 65660,
  "Ġunderrated": 94779,
  "Ġquantities": 33776,
  "Î»Î¬Î²ÎµÎ¹": 130066,
  "ĠíļĮìĤ¬": 127798,
  "ĠÎļÏĮÎ¼Î¼Î±": 140643,
  "ĠÐºÑĢÑĥÐ³": 113268,
  ".responses": 99061,
  "ĠproblÃ©m": 107985,
  "ĠÐ¿ÑĥÐ±Ð»Ñĸ": 121314,
  "jj": 39911,
  "Ġcompar": 7809,
  "ÑĤÐ¾ÑĢÐ°": 104079,
  "ĠÎĪÎ½Î±ÏĤ": 133878,
  "ĠGoodman": 71492,
  "çĭ¬": 106063,
  "ĠAuthors": 25095,
  "ru": 2739,
  "ĠÙĦÛĮÚ¯": 125568,
  "à¹Ģà¸«à¸¡à¸²à¸°": 122644,
  "Ġìĭł": 101327,
  ".Im": 28012,
  "Î³Î¯Î±ÏĤ": 138042,
  "_Reg": 50484,
  "retty": 22028,
  "ĠØŃØ°Ùģ": 124760,
  "ÏĦÏįÏĢÏīÏĥÎ·": 134166,
  "ãĤĥ": 101668,
  "/type": 50711,
  "PEndPoint": 92861,
  "Î¸Î±Î¯ÏģÎµ": 138780,
  "ĠDetailed": 63765,
  "ething": 2350,
  "wpdb": 27878,
  "pard": 62743,
  "ĠØ¹ÙħÙĦÙĬØ©": 126280,
  "Ġjumped": 27096,
  "ĠFreddie": 68362,
  "Ġexceptional": 25363,
  "ĠArn": 36194,
  "à¤ħ": 102315,
  "æĥ³è¦ģ": 119317,
  "ncmp": 33901,
  "Ġattachments": 34779,
  "Ġ................................": 82472,
  ".ContentType": 63810,
  "Ð½Ð¸Ñı": 101319,
  "ĠÎĵÎµÎ½Î½Î·": 139985,
  "ĠÎ¬ÏģÎ¸": 128483,
  "ceptar": 76058,
  "ĠLeigh": 74122,
  "ĠHistogram": 83238,
  "ĠChicken": 34619,
  "uced": 24921,
  "ĠØ¬ÙĨ": 103316,
  "itious": 65795,
  "brew": 22363,
  "+len": 89482,
  "Ġconstructors": 55817,
  "Three": 20215,
  "Ġgives": 6835,
  "ĠØ±Ø¶Ø§": 122287,
  "ĠUsersController": 97527,
  "ERCHANT": 7704,
  "ĠÑĩÐµÑĤÐ²ÐµÑĢ": 118461,
  "ÎĴÎŁÎ¥ÎĽ": 141410,
  "`Ċ": 4077,
  "Ġarena": 25946,
  ".One": 38167,
  "terrain": 47882,
  "ĠÎİ": 136307,
  "ÙĪÙģÙĬ": 117102,
  "district": 36491,
  "ALLOC": 42372,
  "ĠÏĦÎ¿Î¹": 141851,
  "ĠbaseURL": 57841,
  "ĠÐ²Ð°ÑĢÑĤÐ¾": 124026,
  "Atoms": 92403,
  "ĠÏĨÎ¯Î»Î¿": 139532,
  "ĠFatal": 66729,
  "Ob": 4213,
  "yms": 76125,
  "ĠÎºÎµÏĨÎ±Î»": 131965,
  "ĠHttpURLConnection": 95427,
  "ĠDesire": 82524,
  "Ġyoung": 3995,
  "pw": 32962,
  "è¯·æ±Ĥ": 35959,
  "Ġconfiscated": 87370,
  ".and": 35824,
  "ĠÎŃÎºÏĨÏģÎ±ÏĥÎ·": 133398,
  "tod": 68987,
  "ĠìĤ¬ìĿ´íĬ¸": 117240,
  "ĠÎ¹ÎºÎ±Î½ÏĮÏĦÎ·ÏĦÎ±": 131365,
  "Ġwinners": 26526,
  "ĠÏĮÏĥÏīÎ½": 133659,
  "/private": 82101,
  "ĠSamsung": 18907,
  "ĠDb": 12257,
  ".any": 30415,
  "ework": 2504,
  "ÑĢÐµÑģÑģ": 116183,
  "este": 18223,
  "cox": 83100,
  "TextField": 10268,
  "ĠÐ¢Ð¾Ð¼Ñĥ": 117095,
  "Recursive": 79642,
  "íķĦ": 110174,
  "ÎŃÎ»Î±": 133011,
  "Turn": 19952,
  "çļĦå°ı": 114788,
  "ĠÙĨØ¯": 104882,
  "ĠÏĨÎ¿Î¹ÏĦÎ·": 129992,
  "ëıĻìķĪ": 124663,
  "Ġattaching": 72908,
  "éĢĨ": 116900,
  "ĠCORS": 91766,
  "ĠSAX": 75326,
  "ulate": 6468,
  "ĠTai": 22448,
  "DF": 5375,
  "Ġtravelled": 46368,
  "lla": 36882,
  "Ġjue": 48050,
  "Â«ÎŁ": 134186,
  "Ġremar": 84228,
  "Ġmarketers": 55572,
  "ĠÏĢÏİÏĤ": 128980,
  "ĠÑģÐµÐºÑĢÐµÑĤ": 117965,
  "/Desktop": 49599,
  "ĠElli": 47812,
  "(Vertex": 76990,
  ".orange": 79520,
  "ĠCovent": 89817,
  "ordinate": 8904,
  "ĠDiff": 29469,
  "ĠgÃ¶sterir": 124702,
  "ĠEthiopia": 60457,
  "alt": 3223,
  "ĠØ¨ÙĨÛĮ": 126996,
  "ĠÚ©Ùħ": 103239,
  "Ġlettre": 70556,
  "Ġexpired": 27489,
  "Ġpopul": 32849,
  "''Ċ": 72572,
  ".setAdapter": 34066,
  "æ²³": 103232,
  "Ġà¤®à¤£": 122197,
  "ditor": 69831,
  ".FR": 95692,
  "ĠSeamless": 98062,
  "mÄĽt": 111246,
  "Ġdetermining": 26679,
  "CKER": 73646,
  "Ġheel": 35428,
  "ĠTheory": 31535,
  "veyor": 69969,
  "ymph": 32800,
  "Ġentertain": 46276,
  "ĠSadly": 57243,
  "ĠnÃºmero": 31311,
  ".XtraLayout": 69215,
  "IZATION": 50125,
  "006": 11030,
  ".sponge": 98271,
  "ĠëĮĢìĥģ": 116464,
  "Ġà¤ªà¤¹à¤²": 102348,
  "ĠSIL": 60823,
  "anÄ±": 100946,
  "Ġprotr": 81458,
  "Ġbreat": 28855,
  "%B": 50257,
  "ĠÎ±ÏħÏĥÏĦÎ·ÏģÎ®": 143616,
  ",idx": 95084,
  "Ġunfolding": 33831,
  "ĠPeek": 97687,
  "ĠnÃ©cessaire": 100243,
  "Ð»Ð¸Ð²Ð¾": 104561,
  "_validator": 66059,
  "Ġprav": 103111,
  "ĠØ¯Ø§Ø´Øª": 105655,
  "è¿ŀæİ¥": 65164,
  "Ġtapes": 52796,
  "Mob": 61161,
  "Ġdeutsch": 58284,
  "Ġsober": 50505,
  "(error": 6524,
  "ĠPhotography": 41147,
  "Ġê·¸ë¦¬ê³ł": 107536,
  "ĠÐ¡ÑĤÐµÐ¿": 124278,
  "\"My": 46240,
  "Ġsee": 1518,
  "ĠCitation": 70423,
  "Ġapologise": 82485,
  "Ġoste": 52368,
  "Swipe": 71413,
  "Ġsher": 35313,
  "ĠÎµÎ³ÎºÏħÏģÏĮÏĦÎ·ÏĦÎ±": 143060,
  "ĠgetPlayer": 99137,
  "Ã©nom": 98078,
  "ĠÏĢÎ±ÏģÎ¿Ïį": 129056,
  "ìĿ´ëĿ¼": 103292,
  "ilent": 69514,
  "ĠÐ²Ð¸": 100304,
  "Ġpornografia": 96884,
  "Ġrailroad": 51576,
  "/tests": 63568,
  "ĠGomez": 63398,
  "íĥĢ": 101109,
  "ĠÏĥÏħÎ½ÎŃÏĢÎµÎ¹Î±": 130763,
  "={()": 10958,
  "ĠØ§Ø³Ø±": 126278,
  "chars": 19811,
  "ĠÏĢÎ¿Î¹ÎºÎ¯Î»": 137924,
  ".zh": 90488,
  "Ġcounterfeit": 83734,
  "Ġinverted": 47801,
  "Ġé©¬": 116610,
  "ĠMetro": 21631,
  "Ġtimers": 45622,
  "ÏĩÏģÏī": 138838,
  "aginator": 34228,
  "ĠÐľÐ°ÑĢ": 105546,
  "+i": 21905,
  "ĠÎŁÎ¹ÎºÎ¿Ïħ": 142429,
  "Ġrapide": 76608,
  "Abb": 81319,
  "ĠÏĢÏģÎ¿ÏĥÎºÎ®Î½Î¹Î¿": 142773,
  "æŁ¥çľĭæĳĺè¦ģ": 122614,
  ".Location": 4616,
  "ĠÎ´Î¹Î±Î¹ÏĦÎ·": 133862,
  "ĠFIRE": 61563,
  "ĠSpray": 61661,
  "Ġprerequisite": 80884,
  "expenses": 93310,
  "=y": 30468,
  "ĠmoÅ¾nost": 112204,
  "-notes": 62967,
  "gression": 30840,
  "Ġhides": 58704,
  "\\Helper": 63454,
  "ĠÏĢÎ±ÏģÎ¿ÏħÏĥÎ¹Î¬ÏĥÏĦÎ·ÎºÎµ": 139522,
  "ĠDAMAGES": 16908,
  "','');Ċ": 91622,
  "ĠJAVA": 86660,
  "Ġbron": 31071,
  "Ġphoto": 6685,
  "ĠÏĩÎ±ÏģÎ±ÎºÏĦÎ·ÏģÎ¯Î¶ÎµÎ¹": 137568,
  "ĠÎµÎ»Î»Î·Î½Î¹ÎºÎ®": 129140,
  "=b": 22861,
  "Ġspo": 20016,
  "ĠÎ½ÏĦÎ¿": 134184,
  ")<<": 36492,
  "ĠFrankfurt": 56284,
  "Ġmaison": 47276,
  "ĠØ´Ø±ÙĤ": 123867,
  "_COMP": 15318,
  "PASSWORD": 59956,
  "Ġservic": 82459,
  ".soft": 51044,
  ".union": 64351,
  "ĠÑįÐ¿": 120315,
  "ĠerrMsg": 61178,
  "Ġbarracks": 95864,
  "RuleContext": 49802,
  "_DS": 53001,
  "','=','": 77205,
  "ĠIncredible": 80953,
  "Ġburnt": 50440,
  "ÄŁan": 124088,
  "SingleNode": 73452,
  "Ġegret": 92292,
  "his": 26301,
  "Ġaction": 1957,
  "cheduler": 15579,
  ".setImageResource": 43013,
  "ffi": 54899,
  "ĠRossi": 77169,
  "ÏĨÎ¿Î½": 131005,
  ".schema": 31992,
  "ĠScience": 10170,
  "(reply": 52218,
  "ĠÎ¾ÎŃÏģ": 132627,
  "Ġundocumented": 47757,
  "ĠÎ±ÏĢÎµÎ»ÏĢÎ¹Ïĥ": 142896,
  "cmp": 7441,
  "Ġfetching": 45334,
  "outfile": 60725,
  "itary": 45906,
  "è¡Ĩ": 123378,
  "è¿ª": 108620,
  ".create": 2581,
  "à¸¢à¸²": 115043,
  "Î¿Î»ÏĮ": 136119,
  "-mounted": 78830,
  "ĠUPDATE": 23743,
  "Ġtidy": 58905,
  "acÃŃ": 101931,
  "ĠsmÃ¥": 83944,
  "ĠJinping": 94486,
  "ĠEste": 39776,
  "leÅŁtir": 102925,
  "quiv": 15780,
  "Ġmonopoly": 54301,
  "<TResult": 71815,
  "ĠÏĥÏįÎ½Î¿Î´Î¿": 139722,
  "$con": 70943,
  "æĻĤéĸĵ": 82973,
  "Ġneedy": 83563,
  "ĠLitecoin": 95192,
  "WHITE": 58099,
  "Ġbst": 71331,
  "ĠHarris": 21750,
  "ĠDuplicate": 72171,
  "Ġmoss": 78343,
  "ĠÐ¼Ð¾Ð¼ÐµÐ½ÑĤ": 109845,
  "Median": 80614,
  "ĠGaut": 96154,
  "à¥": 12906,
  "333": 8765,
  "ĠFRE": 63706,
  "ï½ŀĊĊ": 100065,
  "ques": 14295,
  "ĠÎµÏħÎ¸ÏħÎ½": 143838,
  "Hur": 98428,
  "TMP": 43334,
  "ĠÏīÏģÎ¹": 142901,
  "Ġ=>{Ċ": 31734,
  "Ġjur": 16422,
  "ĠÏĢÎ»ÎµÎ¹Î¿ÏĪÎ·ÏĨ": 130403,
  "odos": 16790,
  ".getFirst": 65322,
  "hythm": 61254,
  "ĠÏĩÎ±Î¼Î·": 128385,
  "Ġro": 938,
  "Ġboxer": 79557,
  "ĠRosa": 47930,
  "ĠGarland": 80074,
  "ĠNONE": 43969,
  "ĠdveÅĻe": 124612,
  "ĠÑģÐ¿Ð¸Ñģ": 46730,
  "ĠÎ´Î¿Ïħ": 128644,
  "ĠFakat": 113352,
  "ĠToys": 49481,
  "353": 17228,
  "ho": 6292,
  "-ps": 69267,
  "ĠÎºÎ±ÏĦÎ±ÏĥÏĦÏģÎ¿ÏĨÎŃÏĤ": 140652,
  "ician": 12734,
  "ĠUploaded": 69304,
  "Î¯Î½": 100903,
  "ixo": 52462,
  "cccc": 56697,
  "Ġcyclic": 77102,
  "å¡": 59657,
  "Ġdegradation": 53568,
  "_CLR": 72599,
  "_debug": 15810,
  "ScrollIndicator": 99537,
  "Ġsensational": 68503,
  "-src": 50042,
  ".monitor": 64598,
  "Ġflashy": 96567,
  "ĠÑĥÐ²ÐµÐ»Ð¸": 119462,
  "ĠÎ±Î½ÏĦÎ¹ÎºÎ±ÏĦÎ¬ÏĥÏĦÎ±ÏĥÎ·": 139121,
  "ĠÎĳÏĢÏĮÏĥÏĦÎ¿Î»Î¿ÏĤ": 140339,
  "ĠHosp": 58033,
  "ToArray": 30612,
  "Ġforesee": 57791,
  "Ġcreeping": 88692,
  "--;Ċ": 11740,
  "odge": 15912,
  "ĠLouise": 56578,
  "ÎºÎ¬ÎºÎ·ÏĤ": 141056,
  "ĠÎºÏģÎŃÎ±ÏĦÎ¿ÏĤ": 137823,
  "ĠInitialized": 7744,
  "ĠRECEIVE": 89975,
  "Ġevents": 4455,
  "ĠØ´ÙĨ": 102985,
  "ĠÎ¼ÏĢÎ¿ÏģÎŃÏĥÎ¿ÏħÎ½": 138349,
  "Ġ\"/\");Ċ": 98639,
  "ĠÏĥÏħÎ½ÏĦÎ¬Î¾ÎµÏīÎ½": 138862,
  "ĠÐ»Ð¾Ðº": 118160,
  "ĠÐ»ÐµÐ³": 103676,
  "Ġyyn": 86707,
  "Town": 69594,
  "ĠÎ¼ÏħÎ¿Îº": 141845,
  "Ġuncon": 26118,
  "Ġkata": 62788,
  "(tab": 28945,
  "ÏĦÎ¯Î¼Î·ÏĥÎ·": 133350,
  "ÏģÎ·ÏĥÎ®": 141022,
  "(fabs": 87565,
  "defines": 58143,
  "++)čĊ": 11910,
  "Ġzorunlu": 126639,
  "ãģłãĤĪ": 120572,
  "Ġ(){Ċ": 41753,
  "ĠComparator": 51641,
  "bz": 72801,
  "atham": 69476,
  "ĠÎļÎŃÎ½ÏĦÏģÎ±": 142009,
  "ĠØªÙĪÙħØ§ÙĨ": 109446,
  "Ġrevolt": 65935,
  "Ġboosted": 65208,
  "Û°Û°": 104184,
  "ÏĦÎ·ÏĥÎ±": 141114,
  "ĠÎºÎ±ÏĦÎ±ÏĥÎºÎµÏħÎ®": 130715,
  "ĠgetState": 40170,
  "ĠSAC": 91033,
  ".usermodel": 75811,
  "Debug": 8098,
  "Ġonlar": 117150,
  "ĠÎłÎ¬ÏģÏĦÎµ": 143052,
  "ĠÑĩÐ°ÑģÑĤÐ¾": 105930,
  "_properties": 26216,
  "ĠÏĦÎ±Î»ÎŃ": 138715,
  "igenous": 26424,
  "ÐŁÑĸÐ´": 122683,
  "MIT": 18836,
  "kov": 52767,
  "ĠÑĢÐµÐ³ÑĥÐ»Ð¸": 121721,
  "å¸¯": 115351,
  "å¬": 115003,
  "Ð»ÑĸÐ½Ð½Ñı": 108266,
  "meg": 71376,
  "ĠÎłÏģÎ¿ÏĭÏĢÎ¿": 143341,
  "ìĹ": 13879,
  "ÎĵÎ½Ïī": 141922,
  "OfYear": 83302,
  "_us": 11558,
  "ĉMatrix": 60298,
  "_traj": 84923,
  "864": 19355,
  "ĠÎļÎ±Î»Î±": 132336,
  "ĠbaÅŁar": 106484,
  ".CONT": 45816,
  "Ġatleast": 91028,
  "_xs": 81746,
  "Î²Î±Î»Îµ": 130906,
  "Ġimpost": 82509,
  "iguous": 28127,
  "_month": 19469,
  "ĠÎ¸ÎŃÎ»ÎµÎ¹": 129478,
  "ĠMor": 8613,
  "meeting": 62349,
  "ĠÏĦÎ¿ÏĢÎ¿Î¸Îµ": 129248,
  "olo": 10216,
  "stri": 30972,
  "TextNode": 47331,
  "Ġerreur": 92020,
  "\\u": 3855,
  "Ð¾Ð¼ÐµÐ½": 103527,
  ".elements": 29377,
  "ĠAN": 2147,
  "abis": 15728,
  "STITUTE": 29608,
  "Law": 39166,
  "å¥½åĥı": 117152,
  "ĠHive": 69278,
  "ĠçŁ³": 112656,
  "Gr": 6600,
  "ĠÎµÏĢÎ¯ÏĥÎºÎµÏĪÎ·": 133870,
  "-hearted": 70395,
  "tons": 35511,
  "Points": 11665,
  "Ġnickel": 52349,
  "ĠcurrentUser": 32543,
  "ë´ī": 107801,
  "gage": 15292,
  "ĠII": 8105,
  "emu": 34163,
  "Ġcatastrophic": 54677,
  "ÄŀÄ°": 123955,
  "Î¯ÏĥÎ¹Î¿": 141000,
  "airy": 22704,
  "umably": 76051,
  "éĩįæĸ°": 71461,
  "Nice": 46078,
  "Names": 8139,
  "Ġyerinde": 125013,
  "Ġvieux": 92622,
  "inx": 20612,
  "Î»Î¹ÎºÏİÎ½": 130817,
  "ovation": 23723,
  "Ġ'./../": 56200,
  "rt": 3423,
  ")-(": 52456,
  "Ġunarmed": 64999,
  "ĠAlleg": 58824,
  "Ġdefinite": 44870,
  "Ġpropio": 92192,
  "Ġcarriage": 52547,
  "leet": 19510,
  "Ø±": 11318,
  "Ġmaman": 94531,
  "])**": 95822,
  "):čĊčĊ": 57102,
  "ĠSWT": 47800,
  "_cpp": 60786,
  ".setFont": 20391,
  ".ap": 4795,
  "issor": 71450,
  "à¸ĩà¹ģà¸£à¸ģ": 124437,
  "ĠStatic": 23977,
  "Ġgreenhouse": 37647,
  "çĲĨçĶ±": 114667,
  ".PrimaryKey": 48563,
  "Ġ(&": 16278,
  "eckÃ©": 113568,
  "\"]čĊ": 48122,
  "ĠÎ¼Î®ÎºÎ¿ÏħÏĤ": 135767,
  "ĠIngram": 95466,
  "ĠÏħÎ¹Î¿Î¸Îµ": 131054,
  "enÃ§Ã£o": 98398,
  "ĠØ¨ÛĮÙħÙĩ": 125920,
  "ĠmaxHeight": 59209,
  "åĬŀ": 103225,
  "Ġgerman": 43627,
  "ï¼²": 118962,
  "ĠtÃ½den": 122649,
  "ĠÎ´ÏħÏĦÎ¹ÎºÎ¬": 136712,
  "ĠCheap": 37034,
  "({ĊĊ": 52732,
  "Ġscience": 8198,
  "Ġyen": 58440,
  "/P": 16744,
  "Ġfarmhouse": 83408,
  ">m": 74903,
  "Ġmiraculous": 91813,
  "HDR": 71388,
  "_TP": 77100,
  ".ACCESS": 67091,
  "Message": 2097,
  "ĠQui": 42215,
  "Ġzav": 105093,
  "ĠRepository": 27475,
  "ĠniÅ¾": 126021,
  "ÎķÏĢÎ¹ÏĢÏģÏĮÏĥÎ¸ÎµÏĦÎ±": 142681,
  "ÏģÎ±ÏĨ": 140377,
  "ĠtanÄ±m": 108445,
  "ãĦ·": 120384,
  "Ġcabins": 89401,
  "Î³ÏīÎ³ÎŃÏĤ": 143216,
  "à¥Īà¤Ĥ": 100400,
  "PubMed": 58238,
  "Ġsilky": 87418,
  "Ġmall": 34353,
  "ogenous": 53595,
  "_picker": 69330,
  "ĠÎ¿Ïĩ": 143140,
  ".addAttribute": 26300,
  "ĠÎ»Î±ÏĩÎ±Î½Î¹ÎºÎ¬": 140731,
  "Ġpiece": 6710,
  "mem": 10759,
  "Ġalleg": 7179,
  "ĠÏĢÏģÎ¿Î¿ÏģÎ¹ÏĥÎ¼ÏĮ": 135874,
  "Metric": 55410,
  ">\";ĊĊ": 33523,
  "ĠÎµÎºÏĢÏģÎ¿": 133630,
  "(requestCode": 60436,
  "trag": 53115,
  "/exec": 92005,
  "mamÄ±ÅŁ": 113865,
  "ĠÎµÏĢ": 101152,
  "iculos": 68377,
  "Ġ//\"": 59493,
  "ĠAmmo": 80581,
  "ĠÏĨÏīÎ½Î®": 135461,
  "ãģĵãĤį": 107404,
  "Absolute": 28431,
  "Ġsurvival": 20237,
  "Ø¹ÙĦÙĤ": 123260,
  "ĠnabÃŃ": 104548,
  "Î³ÎµÎ¯ÏĦÎ±Î¹": 141827,
  "ĠyaklaÅŁÄ±k": 112518,
  "ĠSlots": 53448,
  "ĠÙħØ¨": 106098,
  "áºł": 117173,
  "ĠKer": 36258,
  "&e": 69170,
  "ĉĠĠĠĠĠĠĠĠĠĠĠĠĠĠĠĠĠĠĠĠĠĠĠ": 51540,
  "ĠngÅ©": 116908,
  "ĠÎ±Î½Î±ÏĢÏĦÏįÏĥÏĥÎ¿Î½ÏĦÎ±Î¹": 138278,
  "å¨ģ": 105578,
  "ĠÎĪÏĩÎ¿ÏħÎ¼Îµ": 135863,
  "Ġboyunca": 109710,
  "Ġpenny": 50169,
  "Ġtradi": 124979,
  "Ġaud": 6264,
  "à¹Įà¹Ģà¸Ļ": 121978,
  "ĠÐ¿ÑĢÐ¾Ð±Ð»ÐµÐ¼Ð°": 124274,
  "ä»Ķ": 120248,
  "_roles": 44161,
  "Î¸ÏħÏĢÎ¿ÏħÏģÎ³": 128573,
  "éģŃ": 114876,
  "miÅŁti": 109590,
  ".react": 55782,
  "Ġbelievers": 52013,
  "IMS": 63564,
  "Ġprincipales": 82512,
  "OPTARG": 99091,
  "_CONN": 61476,
  ".au": 31877,
  "ĠÐ²Ð½ÑĥÑĤÑĢÑĸÑĪ": 114010,
  "Ġdiagrams": 47287,
  "-side": 25034,
  "ĠgetTitle": 59932,
  "gebn": 67298,
  "çŀ": 104921,
  "/pop": 92375,
  "xfb": 47171,
  "ĠðŁ": 11410,
  "ĠÑĤÐ¾Ð³Ð´Ð°": 112057,
  "Ġeru": 61354,
  "ĠÎ²Î±Î¸ÏįÏĦÎµ": 142132,
  "ĠBomb": 33909,
  "ĠaltÄ±na": 116455,
  "ĠpÅĻiroz": 126634,
  "ĠMage": 24260,
  "-payment": 73543,
  "Ġchurch": 8993,
  "ĠÑĪÐºÑĸ": 119484,
  "Ġzd": 37349,
  "_intersection": 83658,
  "athroom": 78932,
  "Ġlehet": 77232,
  "ĠĠĠĠĠĠĠĠĠĠĠĠĠĠĠĠĠĠĠĠĠĠĠĠĠĠĠĠĠĠĠĠĠĠĠĠĠĠĠĠĠĠĠĠĠĠĠĠĠĠĠĠĠĠĠĠĠĠĠĠ": 39584,
  "-parameter": 90512,
  "Ġconsultancy": 74379,
  "ç´¹ä»ĭ": 126362,
  "Ø§Ø°": 105171,
  ".iloc": 33068,
  "758": 25302,
  "Toe": 91557,
  "Ġdissertation": 37445,
  "Ġgauche": 96721,
  "ĠÎ±ÏĢÏĮ": 100919,
  "desktop": 37969,
  "Ġempresa": 33864,
  "ĠÏģÏİ": 136704,
  "-bound": 50962,
  "ĠISSUE": 87001,
  "autop": 88421,
  "Ġ%%Ċ": 65158,
  "...": 1131,
  "Proto": 32649,
  ".authenticate": 49898,
  "ĠCatalan": 81944,
  "Ġcreep": 28182,
  ".Authentication": 41773,
  "ĠPhotograph": 33255,
  "Ġmiscar": 80662,
  "ĠHelsinki": 77434,
  "ĠÑģÐ¿Ð°Ñģ": 125474,
  "}`;Ċ": 25881,
  "_Public": 75005,
  "Ġtakes": 5097,
  ".*/Ċ": 53127,
  "ERVER": 8583,
  "<li": 8988,
  "ĠÑĢÐ°ÑģÐº": 121169,
  "ĠÎ±Î½ÎµÏģÎ³Î¯Î±ÏĤ": 135648,
  ".Listener": 65191,
  ".tie": 33927,
  "surface": 40846,
  "áº£n": 41807,
  ".dtype": 46855,
  "asurer": 57394,
  "/MM": 38460,
  "ÑģÐ¾Ð»": 113311,
  "ĠÎļÎ¿Î¹Î½Î¿Î²Î¿ÏħÎ»ÎµÏħ": 143210,
  "slack": 89648,
  "Ġexperiencing": 25051,
  "ĠCrusher": 16598,
  "Ð»Ð°Ð½": 106148,
  "ĠAuf": 26798,
  "Ð¾Ð»Ð¾Ð²": 73761,
  "ÏĢÏĦÎ¹ÎºÏĮ": 135599,
  "Î»Î¿Î³": 102706,
  "ĠPCs": 47931,
  "suma": 95909,
  "Connect": 14953,
  "Æ¯á»": 121785,
  "Facing": 70957,
  "Ð¶ÐµÐ½Ð¸Ñı": 106990,
  "Ġè·": 113566,
  "Segment": 21766,
  "ÎŃÏģÏģÎ¹": 138286,
  "ĠktÃ³ry": 42942,
  "olut": 9218,
  ".impl": 15654,
  "ÂµÎŃÎ½Î·": 137731,
  "ÏĥÏĦÎµÎ¯": 128030,
  "-Îķ": 136013,
  "ãģŁãģ¡ãģ¯": 127282,
  "é»ĥ": 117795,
  "Ġexpansive": 61838,
  "_Check": 29288,
  "908": 23629,
  "dec": 8332,
  "Checksum": 74290,
  "ĠNoSuch": 49077,
  "Ġalleged": 10711,
  "ĠÎºÎ¬Î½Ïī": 131196,
  "DM": 8561,
  "/content": 29017,
  "ĠÎ¾ÎµÎºÎ¬Î¸Î±ÏģÎ·": 141816,
  "ĠØ±ÙģØªØ§Ø±": 120940,
  "ĠAttachment": 56848,
  "ĠBecome": 51378,
  ".ĊĊĊĊĊĊĊĊ": 28527,
  "_KeyDown": 82559,
  ".ARR": 98748,
  "bble": 60980,
  "letal": 46590,
  "ĠÎµÏħÏģÏīÏĢÎ±ÏĬÎºÎ¿Ïį": 140640,
  "Ġbreakout": 63788,
  "Ġpedestrians": 62558,
  "ä»ĺ": 47000,
  "ĠØ¯Ø§Ø®ÙĦ": 110515,
  "Ġmodific": 70233,
  "atetime": 28762,
  "Ġ\"}\";Ċ": 99374,
  "Ġadulti": 78350,
  "ĠÎµÎ¼ÏĢÎ¿ÏģÎ¯Î¿Ïħ": 135851,
  "_Left": 71885,
  "222": 9716,
  "DO": 5989,
  "Ġdese": 51388,
  ".splice": 22097,
  "}):": 91788,
  ".orders": 64644,
  "ĠÎ±ÎºÏģÎ±Î¯Î±": 140611,
  "sak": 111884,
  "_EN": 6434,
  "ĠÎ¸ÎŃÏģÎ¼Î±Î½ÏĥÎ·ÏĤ": 137940,
  "conduct": 77752,
  "PÅĻÃŃ": 117679,
  "amental": 44186,
  "ÄįnÃŃk": 114030,
  "Ð½Ð¾Ñĩ": 110636,
  "ĠHancock": 81367,
  "54": 4370,
  ".Phone": 49994,
  "ĠfindBy": 45559,
  "ĠRange": 16842,
  ".material": 24585,
  "__)ĊĊ": 41825,
  ".firebaseio": 81622,
  "ÑĨÑĸÐ¾Ð½Ð°Ð»ÑĮ": 104925,
  "ĠCLIIIK": 110024,
  "Ð£": 41682,
  "Ġinstr": 9680,
  "ĠFrantiÅ¡ek": 126551,
  "ĠSke": 63281,
  "ĠìķĮ": 102066,
  "Ġ...,": 61453,
  "ĠØ¹Ø§ÙĦÙħ": 116341,
  "Ġreductions": 47311,
  "suggest": 96861,
  "ĠPret": 63039,
  "ĠiÃ§": 27615,
  "ĠURLs": 36106,
  "ĠÎ¼Î±ÏģÏĦÏħÏģÎ¯ÎµÏĤ": 142789,
  "akin": 43330,
  "hoo": 119820,
  "kker": 53698,
  "bout": 74001,
  "Ġintervention": 21623,
  "Trader": 94272,
  "ĠvÄĽdom": 125100,
  ".StartsWith": 50879,
  "Ġà¤ĺà¤°": 106244,
  "ĠSav": 20680,
  ",ĊĊĊ": 58575,
  "à¹ĥà¸Ī": 102775,
  "Anywhere": 74425,
  "Ġtes": 51309,
  "ornment": 95575,
  "block": 4677,
  "ĠFreud": 72634,
  ".à¸¢": 113099,
  "(sync": 98333,
  "Ġgrad": 6117,
  "Ġtone": 16630,
  "NaN": 23678,
  "onDelete": 62271,
  "remove": 5514,
  "ĠWashing": 82238,
  "ĠØ§Ø±Ø´Ø¯": 125259,
  "Ġ<%": 60330,
  "Determin": 93748,
  "Ġdumpster": 28550,
  "ALA": 98865,
  "mutable": 31573,
  "Ġcolossal": 97937,
  "groups": 17171,
  "Ġcomparison": 12593,
  "Ġwid": 9923,
  "Ġvests": 98373,
  "Ġdecentralized": 49063,
  "UREMENT": 28746,
  "eres": 13213,
  "Viewport": 35659,
  "%)": 11587,
  "Ġà¸Ħà¸§à¸²à¸¡": 108560,
  "ĠíķĻêµĲ": 113187,
  "ĠÎŁÎ¹ÎºÎ¿Î½Î¿Î¼Î¯Î±": 143108,
  "Î»Î·ÏĥÎ·": 129080,
  "ACHED": 53745,
  "ĠÄĳiá»ĥm": 101643,
  "ĠZimmer": 41507,
  "ĠSass": 85962,
  ".localScale": 46833,
  "âĢĮÙĩØ§": 101440,
  "Ġcela": 45602,
  "ĠÎŃÏĥÏĢ": 137668,
  "ÏĢÏĮÎ½": 128414,
  "azon": 5639,
  "-ne": 41078,
  "sty": 79855,
  "Ġreceptions": 81293,
  "Ð¸Ð½Ð¾Ð¹": 117637,
  "Lady": 76702,
  "ĠSchro": 95682,
  "Ø§Ø¨Ø¹Ø©": 118350,
  "ÑİÑĩÐ¸": 102469,
  "GameManager": 94211,
  "ĠãĤ·": 106030,
  "orption": 66181,
  "ĠHick": 79028,
  "ĠJSX": 56596,
  "hello": 15339,
  "ĠåĲ": 39533,
  "uate": 6426,
  "Ġperception": 21063,
  "ĠÐ¾ÑģÑĥÑīÐµÑģÑĤÐ²": 109284,
  "ĠÎµÎ³Î³ÎµÎ³ÏģÎ±Î¼": 140539,
  "ÏģÎ¬ÏĤ": 130398,
  "(freq": 66259,
  "ĠÐ´ÐµÑıÑĤÐµÐ»ÑĮ": 108035,
  "MMMM": 73402,
  "ishments": 100053,
  "Elements": 12132,
  "Î³ÎµÎ¹ÏĤ": 142571,
  "Ġsuppress": 28321,
  "){": 6226,
  "rende": 86627,
  "pure": 52833,
  "ĠÏĢÏĩ": 142322,
  "-aligned": 98551,
  "âĢĶor": 51749,
  "ĠÐ´ÑĢ": 121063,
  "ĠÄįervna": 117219,
  "ĠXPath": 66242,
  "ĠÚĨ": 100506,
  ".tab": 12687,
  "ced": 2041,
  "[value": 45574,
  "ĠìŀĪìĿĦ": 109077,
  "ĠÎµÎ½Î´ÎµÎ¹Îº": 137590,
  "ĠÐ±Ð°Ñĩ": 117584,
  "ĠÏĦÎ¿ÏħÏģÎ¹ÏĥÎ¼Î¿Ïį": 133919,
  "çĶŁçļĦ": 122714,
  "Ġjusto": 82943,
  "orney": 9617,
  "Ġtarz": 123215,
  "Ġcarr": 48595,
  "ĠÄĲáº·c": 118781,
  "ĠAlgorithms": 86859,
  "Î·Î¸ÎµÎ¯": 128725,
  "åŃĺæ¡£": 110527,
  "Ð»ÐµÐ½Ð¸Ðµ": 56892,
  "ĠGeography": 84425,
  "ĠJK": 94326,
  "ffffff": 27984,
  "ĠÎ³Î¯Î½Î¿ÏħÎ½": 130092,
  "Cos": 55324,
  "Ġhá»Ļ": 105354,
  "Received": 24141,
  "(action": 15665,
  "ãģĻ": 17663,
  "ĠÏĨÏħ": 128289,
  "Ġaccent": 30200,
  "ESA": 65652,
  "Ġ){ĊĊ": 59277,
  "Ġreaders": 13016,
  "ĠEden": 51915,
  "Ġmeter": 23819,
  "(icon": 45442,
  "âĢ¦\"ĊĊ": 61903,
  "Kids": 70533,
  "Ġthresholds": 57240,
  "Ġpasswd": 53137,
  "ELCOME": 74787,
  "erture": 42947,
  "Kr": 82265,
  "CEO": 79596,
  "Tw": 23662,
  "ÐłÐ°Ð·": 115842,
  "pron": 72239,
  "Ġpon": 35023,
  ".auth": 9144,
  "Ġthieves": 61667,
  "Ġswingers": 55126,
  "Ġdeserves": 30675,
  "Ġsister": 13219,
  "OGRAPH": 91949,
  "ĠÎ·Î¼ÎµÏģÎ¿Î¼Î·Î½Î¯Î±": 130963,
  "Ġformato": 55956,
  "Values": 6359,
  "Ġcommunion": 94132,
  "ĠÏĥÏħÎ¼Î²Î¹Î²Î±Ïĥ": 140421,
  "ĠÏĢÏģÏĮÏĦÏħÏĢÎ±": 133994,
  "(Seq": 90003,
  "ĠTran": 58328,
  ";\">": 12630,
  "Ġtechnology": 5557,
  "Ġà¸Ńà¸³": 117298,
  "-----------ĊĊ": 55310,
  "Ġpopis": 119718,
  "ĠÎµÏģÎµÏħÎ½Î·ÏĦÎ¹ÎºÏĮ": 141505,
  "inkle": 36244,
  "Ġbackups": 60766,
  "Ġdress": 8679,
  "ĠÎ¼Î±Î¸Î·ÏĦÏİÎ½": 130392,
  "ĠÎ¼ÎµÎ¹ÏīÎ¼ÎŃÎ½Î·": 137025,
  ".glide": 61206,
  "Ġdisput": 35160,
  ".postMessage": 95924,
  "Ġprogressively": 72859,
  "à¥ģà¤ªà¤¯": 110829,
  "Ú©ÙĪ": 115220,
  "ĠÎļÏģÎ¹": 137362,
  "æł¼å¼ı": 69905,
  "POINT": 22255,
  "ĠÙĦØ¨": 107864,
  "ĠÐ¾ÑĩÐµÐ²Ð¸Ð´": 126923,
  "-control": 4565,
  "Ġfname": 23364,
  "ĠBarn": 23229,
  "Ġdeck": 9722,
  ":new": 45855,
  "ĠMOCK": 84115,
  "_MOV": 49764,
  ")+(": 42894,
  ".Private": 88838,
  "ÏĦÎ¹ÎºÎ¿Ïį": 114858,
  "ÑģÐ°Ð¼": 127958,
  "Attendance": 88881,
  "ĠMoines": 78158,
  "$": 3,
  "ĠÏĢÏĦÎ®": 135947,
  "ĠÐ¼ÑĸÐº": 126700,
  "webElementX": 47072,
  "getClientOriginal": 75985,
  "ialis": 18159,
  "Ġintervals": 28090,
  "Ġsami": 127129,
  "Ġsketch": 26610,
  "Ġgimm": 75873,
  "Ð°ÑĤÐºÑĸÐ²": 125964,
  "ĠRequest": 6274,
  "Brun": 95330,
  "ãģ¨ãģªãĤĬ": 121711,
  "ĠEnrollment": 89084,
  "Ġweed": 40475,
  "Ġadjusts": 84431,
  "591": 24380,
  "Ġç¬¬ä¸Ģ": 114274,
  "ĠSerena": 92090,
  "manufact": 98550,
  "Ġforecast": 18057,
  "à¹Įà¸Ĭ": 116957,
  "ìłģìĿ¸": 103684,
  "Ġmotorcycle": 35404,
  "-sized": 28935,
  "ĠRon": 14662,
  "_vertical": 62303,
  "Nil": 19604,
  "Administrator": 63476,
  "Disp": 64871,
  "snd": 47495,
  "ĠÃł": 3869,
  "ĠÚ©ÙĪÚĨ": 112433,
  "ĠstÃ¸r": 75450,
  "ÂµÏīÏĤ": 142598,
  "asionally": 69491,
  "ĠPope": 30460,
  "Ġsociety": 8396,
  "ìĦľë¹ĦìĬ¤": 125935,
  "enef": 51565,
  "FIT": 68854,
  "Ġmechanisms": 24717,
  "Ġsailing": 51129,
  "_SIGNATURE": 74852,
  "ĠTop": 7054,
  "ÏĩÎ±Î»": 138183,
  "ĠsÄ±": 101872,
  "ĠbÃłn": 105213,
  "duck": 74070,
  "Ġsquat": 58570,
  "(Core": 78720,
  "Ġinhab": 26318,
  "ĠMend": 46211,
  "åįĥ": 103633,
  "listening": 75919,
  "inder": 5863,
  "Ġ?,": 23285,
  "æŃ¡": 125741,
  "ĠakÅŁam": 122058,
  "/>Ċ": 10381,
  "ĠÎµÏĢÎ¹ÏĥÏĦÎ¿Î»Î®": 131927,
  "ename": 1878,
  "Ð¸ÑĩÐ½Ð°": 125506,
  "Ġdmg": 63253,
  "ÙĩÙĨ": 108241,
  "Ġ();ĊĊ": 26221,
  "revision": 29442,
  "ĉmode": 61347,
  "myfile": 96021,
  "ĠÏĩÎ¿ÏģÎ·Î³": 131346,
  "ĠÎ±ÎºÎ¿Î»Î¿ÏħÎ¸Î®ÏĥÎµÎ¹": 135898,
  "Ġflurry": 88563,
  "ĠÎ±Î½ÏĦÎ¯ÏĥÏĦÎ¿Î¹ÏĩÎµÏĤ": 134715,
  "_HOT": 92423,
  "ĠCOMP": 22735,
  "ĠAlternatively": 39578,
  "Äĩe": 56494,
  "ãģıãĤĭ": 109749,
  "ĠÎµÎºÎ»Î¿Î³ÏİÎ½": 134022,
  "_SOURCE": 26505,
  "Î£ÏĦÎ·Î½": 128536,
  "ĠBodies": 81446,
  "_BLOCK": 19281,
  "Appointment": 70635,
  "ĠÎ²ÏģÎŃÎ¸Î·ÎºÎ±Î½": 132833,
  "Alexander": 78850,
  "Font": 5564,
  "ÐŁÐ¾Ð»": 122307,
  "Ġslo": 18067,
  "sstream": 39466,
  "='\".$_": 81348,
  "Ġhandshake": 58120,
  "(Android": 78476,
  "ĉn": 9215,
  "ĠÎ¥Î³ÎµÎ¯Î±": 143347,
  "ĠScho": 57284,
  "Ġba": 13081,
  "ii": 3893,
  "Ġsplitter": 74086,
  "Ġmalzem": 118367,
  "ĠÑģÐ¾Ð²ÐµÑĤ": 114144,
  "ĠÏĢÎ¬ÏĥÎ±": 135453,
  "Ġunite": 52696,
  "rn": 36722,
  "neutral": 60668,
  "[tag": 81139,
  "(SE": 52148,
  "ĠÐ¿Ð»Ð°Ð²": 123433,
  "Ġodio": 87834,
  "à¹ĩà¸Ļà¸Ń": 123004,
  "Proceed": 85438,
  "Ġadvertiser": 87386,
  "à¸²à¸ļà¸²à¸¥": 123798,
  "ë³´ëĭ¤": 107988,
  "ĠLÃ¢m": 124424,
  "åıĮ": 104836,
  "Ġyerine": 106545,
  "Ġouts": 23651,
  "Ġfloppy": 92458,
  "-class": 15144,
  "_gray": 52431,
  "ĠØ³ÙĪØ¯": 117362,
  "genres": 65011,
  ".structure": 68436,
  "ĉAddress": 99190,
  "ĠalÄ±nmasÄ±": 127977,
  "/archive": 72727,
  "ĠÎ±ÏĢÏĮÏĥÏĦÎ±ÏĥÎ·": 131325,
  "Ġproblema": 42176,
  "_prog": 61490,
  "ÏĥÏĦÎ¹ÎºÎ¬": 128354,
  "+'_": 58110,
  "ĠEssen": 99775,
  "ĠÏĥÎ¿ÏįÏĢÎµÏģ": 135535,
  "Mbps": 87242,
  "\\File": 53147,
  "ä»ĬæĹ¥": 110589,
  "}`}>Ċ": 57391,
  "Ġikinci": 110569,
  "Û±": 100367,
  "à¸Ńà¸Ļà¸Ķ": 115297,
  "Ġconsequence": 29774,
  "{})": 29975,
  "Ġskup": 105906,
  "Ġswo": 34227,
  "ĠØ²ÛĮØ³Øª": 119923,
  "Ġuncont": 71093,
  "---------Ċ": 29547,
  "_USE": 23092,
  "Ġbusiness": 2626,
  "ĠKunst": 81431,
  "ì§¸": 84766,
  "ĠGarr": 95257,
  "à¸±à¸Ĵ": 104972,
  "Ġhes": 20365,
  "ë¥¸": 84065,
  "ĠÃĩÃ¼nkÃ¼": 111032,
  "ĠÎ±Î¾Î¹Î¿ÏĢ": 136253,
  ".parentElement": 56365,
  "ĠÑĤÑĥ": 105396,
  "ĠÎ½ÎµÎ¿ÏĨÎ¹Î»Îµ": 143096,
  "ersistent": 14256,
  "Ġhonorable": 74590,
  "Ġrej": 78467,
  "Ġsidebar": 28325,
  "Ġpromoters": 95260,
  "ĠHawks": 57712,
  "Ġreceive": 5371,
  "Ġfalsely": 61456,
  "ĠÐ·Ð½Ð°Ð¹": 110054,
  "_Render": 43202,
  "Ġná»Ńa": 127483,
  "Ġbogus": 61020,
  "-global": 74419,
  "ĠCredits": 49800,
  "Ġfor": 369,
  "ĠÐ·Ð°ÑĤ": 102994,
  "muz": 108147,
  "Î¾ÏĦÎµ": 134084,
  "ä»¥åıĬ": 109717,
  "oubted": 34400,
  "'hui": 88253,
  "-league": 88363,
  "ĠØ®ÙĪØ´": 112639,
  "month": 10460,
  "ÑıÑģÑĮ": 111428,
  "ĠTime": 4212,
  "Ġáº¤n": 119466,
  "-la": 53926,
  "ĠÎµÏĢÎ¿ÏĩÎ®ÏĤ": 132646,
  "getConnection": 53514,
  "ÎºÏħÎ²ÎŃÏģ": 133037,
  ".Username": 43877,
  "Ġgrande": 25626,
  "ÏĥÎ¿ÏħÎ¬Ïģ": 143005,
  "ãħĩ": 100900,
  "ĠHawai": 22153,
  "ĠSCRIPT": 54779,
  "ĉPreparedStatement": 60437,
  "(cat": 54700,
  "ROOT": 24831,
  "æĴ°": 126291,
  "Ġ++Ċ": 98447,
  "Ġhamburg": 57947,
  "035": 22407,
  "ÎķÎ³Î³ÏģÎ±ÏĨÎµÎ¯ÏĦÎµ": 141492,
  "PCI": 54802,
  "ĠRanger": 49422,
  "ĠautoComplete": 73586,
  "ĠConservatives": 49344,
  "dehy": 80660,
  "iaÃ§Ã£o": 68743,
  "ï¼Įåħ¶": 107965,
  "ĠÎ±Î¼Î¿Î¹Î²": 133854,
  "Ġlocks": 32776,
  "AE": 13983,
  "<unsigned": 27451,
  "Limited": 75577,
  "ì´Į": 112266,
  "ĠUnivers": 15915,
  "Ġhaste": 90539,
  "ĉRun": 87052,
  "ĠsÃ¼t": 115693,
  "ĠPatty": 89345,
  "ĠDysfunction": 88266,
  "after": 10924,
  "ĠÎľÎŃÏģ": 135302,
  "ĠBras": 62224,
  "ulmuÅŁ": 121791,
  "Ġlifestyles": 79731,
  "#ad": 68968,
  "ĠÎºÎ¬ÏģÏĦÎµÏĤ": 141604,
  "ĠØ¹ÙĦÙħ": 106653,
  "Ġthinks": 15849,
  "Ġprogressed": 62916,
  "ĠÏĢÎ±ÏĩÏħÏĥÎ±ÏģÎºÎ¯Î±": 142608,
  "ederland": 40455,
  "é§ħå¾ĴæŃ©": 125217,
  "Ġswinger": 24545,
  "éĽĨ": 43167,
  "Ġradical": 18336,
  "çĪ": 76207,
  "ĠnÃ´ng": 111865,
  "_LOCAL": 29499,
  "_Play": 92954,
  "Ġcung": 103641,
  "ĠæĴ": 118807,
  "ì¹´ëĿ¼": 118618,
  "unik": 71549,
  "_TA": 62950,
  "sson": 31031,
  ".Tween": 75349,
  "SF": 29767,
  "turn": 413,
  "_IRQ": 22749,
  "ĉON": 57884,
  "Ġduplicates": 43428,
  "}_${": 68761,
  "ĠÎĹÏģÎ±ÎºÎ»ÎµÎ¯Î¿Ïħ": 134987,
  "Ġcows": 46266,
  "ĠnejvÄĽtÅ¡ÃŃ": 115838,
  ".HtmlControls": 99815,
  "Û´": 101009,
  "Elite": 96458,
  "uetype": 99440,
  "Ġwarto": 79934,
  "etti": 29037,
  "inine": 83334,
  "ĠÐ½ÑĸÑĩÐ¾Ð³Ð¾": 116411,
  "Activation": 62560,
  "irling": 51868,
  "ĠâĢł": 124232,
  "ĠÏĢÎµÏģÎ¹Î¼ÎŃÎ½Î¿ÏħÎ½": 136110,
  "Ġfilmpjes": 95430,
  ".orientation": 46807,
  "Î½ÎŃÎ¿ÏħÎ½": 136919,
  "_home": 22389,
  "Sp": 6540,
  "ĠPi": 21286,
  "quisa": 59595,
  ")...": 40125,
  "Ġdiligence": 63582,
  "Ĵáŀ": 73596,
[...]
